#version: 0.2
e n</w>
e r
i n
t h
e r</w>
e n
c h
th e</w>
a n
u n
i e</w>
t i
e i
s t
a l
o r
o n</w>
a r
e l
o n
e s</w>
d er</w>
a t
r e
i n</w>
a u
l i
e in
d ie</w>
r o
c h</w>
e s
d en</w>
e d</w>
d i
l e</w>
s i
an d</w>
S ie</w>
un d</w>
w i
o r</w>
m a
g e
d e
i s</w>
a m
t e</w>
ti on</w>
f i
r i
a s</w>
s t</w>
a b
y o
t o</w>
t en</w>
o f</w>
u r
o l
in g</w>
e t
a s
i t</w>
a n</w>
e c
v er
s ch
u s
t er
e x
o m
yo u</w>
a c
g en</w>
s p
en t
w er
g e</w>
au f</w>
l o
f ü
un g</w>
li c
u t
i l
r a
d as</w>
b e
n e
ti on
d o
v i
u r</w>
D at
l y</w>
m it</w>
l e
f or
w en
u m
d er
en t</w>
d e</w>
a t</w>
ei n</w>
wer den</w>
t h</w>
n o
ein e</w>
n en</w>
el l
p ro
a l</w>
l a
n i
e h
o p
ei ch
b e</w>
t er</w>
c on
f or</w>
z u</w>
i st</w>
o der</w>
v e</w>
i t
e m</w>
ch t</w>
ar e</w>
wi th</w>
er t</w>
w h
c an</w>
t o
a d
g r
u m</w>
de m</w>
v on</w>
s o</w>
s e</w>
e m
an n</w>
d at
u l
h r
fü r</w>
b en</w>
di es
h o
I n
re s
st ell
th is</w>
wi r
t s</w>
p p
d es</w>
ö n
a tion</w>
u t</w>
c om
k en</w>
k ön
wir d</w>
a ch</w>
l en</w>
al l</w>
m o
s e
g en
i m</w>
kön nen</w>
g t</w>
b er
w ei
f f
s el
i f</w>
f ol
s u
wen n</w>
ni cht</w>
c o
c e</w>
er en</w>
P ro
A n
w or
V er
s o
b o
t a
w e
t r
am e</w>
lic k</w>
g i
b er</w>
e l</w>
z ei
th at</w>
gr am
p o
yo ur</w>
f in
fi le</w>
ex t</w>
l in
j e
p l
r u
un gen</w>
q u
no t</w>
v er</w>
st e</w>
i c
er e</w>
th er</w>
au s
au s</w>
w ä
s en</w>
b ei
a r</w>
in g
do w
z u
at e</w>
tion s</w>
for ma
ä n
t e
re c
e i</w>
i m
un k
s er
ch e</w>
a k
fi l
a ge</w>
ec t</w>
k ann</w>
y st
c lick</w>
ab le</w>
f t</w>
a h
t ed</w>
al s</w>
in st
g es
S t
g h
al l
ein en</w>
m e</w>
an d
m en
b y</w>
w ie</w>
wä h
ch en</w>
ro m</w>
s in
p ar
k lic
ein er</w>
f rom</w>
d u
S ch
a g
as s</w>
et z
B il
c k
au ch</w>
S p
i ch</w>
b en
si on</w>
h i
ein em</w>
klic ken</w>
i e
p er
tion en</w>
al so</w>
s ol
ut z
al ly</w>
E in
ent s</w>
as e</w>
p or
d ur
si ch</w>
s ho
o o
us e</w>
h al
R e
li ch</w>
an ge
ne t</w>
th en</w>
com p
d s</w>
es s
l t</w>
Dat ei</w>
u e</w>
ma ti
sin d</w>
dies e</w>
u st</w>
d ann</w>
r ei
l l</w>
B e
er s</w>
a ch
a p
Dat ei
d ass</w>
W in
a d</w>
I hr
re ch
a ve</w>
s c
a f
ge ben</w>
ab en</w>
n ach</w>
an g
a v
a pp
s h
ur e</w>
d es
au f
ü ber</w>
z i
be i</w>
m e
n ur</w>
t ext</w>
t u
o k
dat a</w>
c ol
st ar
at ed</w>
t w
z eich
fil es</w>
er n</w>
wäh len</w>
y p
ar i
on ly</w>
au to
v al
g el
m an
n um
d en
b es
Win dow
yst em</w>
S ei
k t</w>
as s
auto mati
i ma
f un
k s</w>
m en</w>
g ra
p r
k e</w>
m ö
F or
n ame</w>
gh t</w>
al le</w>
lo w
on e</w>
i s
i g
el d</w>
u s</w>
d res
con t
ro w
un g
an der
ma n</w>
es s</w>
en d</w>
i r
Pro gram
v or
wh ich</w>
M a
th o
o ther</w>
m in
p h
st en</w>
t t
ri p
Window s</w>
e y</w>
A r
u g
ul d</w>
un ter</w>
sch en</w>
ar d</w>
la y
O p
ver wen
el le</w>
de t</w>
I h
in ter
ing s</w>
e b
E x
n er</w>
d ung</w>
l as
ü s
A us
o b
p res
d ing</w>
ut er</w>
fi g
Datei en</w>
i l</w>
p le</w>
fun c
dur ch</w>
K on
un ter
pro gram
In ter
stell en</w>
zei gt</w>
t ra
an t</w>
st er</w>
b t</w>
t z
e t</w>
t en
Z ei
c l
m ent</w>
L i
g li
eh en</w>
z um</w>
ü ber
b ut</w>
ut t
m eh
h aben</w>
S er
m ar
w in
ti m
l ä
l ei
der n</w>
d a
ne w</w>
u p</w>
ac k
b i
s er</w>
ah l</w>
b in
e st
u p
rec t
fü hr
ein f
c um
F unk
h ave</w>
om p
sel ect</w>
D i
A b
ung s
u f
de fin
t y</w>
ti ve</w>
t ing</w>
s ch</w>
L in
re d</w>
el e
li st</w>
c or
f er
el l</w>
sp ec
wi ll</w>
Dat en
ar bei
E n
te t</w>
sp i
ö ff
s ystem</w>
b le</w>
B en
E r
for m
s ie</w>
c re
b ar</w>
e -
H T
or y</w>
ser ver</w>
inst al
ti c
li e
af ter</w>
O r
fi r
e di
or e</w>
Ben utz
wei ter
or t</w>
ec tion</w>
an ge</w>
ri ght</w>
di sp
i ert</w>
en den</w>
i st
b u
y m
d ar
in di
z ur</w>
m ust</w>
M L</w>
wh en</w>
Dat en</w>
w a
Sei te</w>
ch ten</w>
lo c
M o
d ed</w>
utt on</w>
num ber</w>
forma tion</w>
do cum
er ung</w>
row ser</w>
D ok
z e</w>
S u
Dok um
r ü
n o</w>
t yp
p re
ch t
c ur
s si
0 0
stell t</w>
ex t
y s</w>
us ed</w>
ac e</w>
am en</w>
fol low
h in
M en
ei t</w>
an s
e u
ti vi
P o
b et
sho uld</w>
s et
stell ungen</w>
i eren</w>
la tion</w>
p age</w>
w as</w>
w ur
p le
in t</w>
no w</w>
ex am
T a
n e</w>
es e</w>
W eb
f o
f eh
f tw
j ect</w>
si on
P D
com m
c ess</w>
ab e</w>
ver sch
es t</w>
wor k</w>
g ro
v ari
di rect
e ach</w>
a m</w>
ass wor
bo x</w>
spec i
h er
or i
g er</w>
O b
ge b
al o
b it
e g
us er</w>
dies er</w>
t ings</w>
ti v
gi bt</w>
k om
do w</w>
t es</w>
lin e</w>
men u</w>
ein es</w>
ftw are</w>
si m
ange zeigt</w>
f en</w>
in formation</w>
th ere</w>
ec ted</w>
yst em
th ese</w>
V or
Ihr e</w>
F ar
. .</w>
ima ge</w>
al i
av a
etz t</w>
aus ge
Inter net</w>
e .
ru c
ma y</w>
eich en</w>
val ue</w>
b le
ar y</w>
t -
ö ß
ti me</w>
fol gen
er k
n et
el y</w>
am et
th ey</w>
j ust</w>
ag es</w>
us s</w>
B .</w>
po ssi
ar ch</w>
un der</w>
func tion</w>
fir st</w>
m üs
ma il</w>
ell en</w>
or d
rip t</w>
m er</w>
ter s</w>
s ec
e v
er te</w>
ges ch
win dow</w>
ri f
Or d
st a
Bil d
n is</w>
b r
e w</w>
t or</w>
Ser ver</w>
ent sp
p ut</w>
ver sion</w>
ab er</w>
o b</w>
co de</w>
A c
follow ing</w>
comp uter</w>
müs sen</w>
en ster</w>
for e</w>
forma t</w>
t ur
g l
o ut</w>
an n
ü n
einf ach</w>
. ..</w>
ad dres
hi er</w>
T ext</w>
fü gen</w>
exam ple</w>
wi e
w el
ak tivi
y n
h e</w>
fi c
fig ur
' s</w>
T ab
ne u
B ei
b utton</w>
ch ti
g in
C on
m ore</w>
n a
Ob je
d ri
ac k</w>
k e
ff er
An wen
al ten</w>
all ed</w>
o h
ein ge
B er
sol l
si te</w>
se arch</w>
st at
F i
wei se</w>
en th
dat e</w>
c ally</w>
m uss</w>
s om
el em
forma tionen</w>
A dres
mo use</w>
v or</w>
k ing</w>
A uf
no ch</w>
ch ar
ander en</w>
hal ten</w>
c es</w>
le ft</w>
si g
t ri
pl at
Bil d</w>
ma l</w>
l es</w>
b an
ent er</w>
ge h
su ch</w>
a tions</w>
ch ange</w>
t s
C omp
S o
n lo
su b
g an
s on
bes tim
m it
u st
S c
ak tu
Ein stellungen</w>
re ad
r on
m i
fin den</w>
Funk tion</w>
a si
E -
t able</w>
sp eich
U n
cur r
k on
automati sch</w>
p ri
i red</w>
V i
g er
k eit</w>
Program m</w>
h ere</w>
cl u
verwen den</w>
ho w</w>
ar d
instal li
g .</w>
l at
tw o</w>
app lic
bei m</w>
eh t</w>
op en</w>
h tt
g lich</w>
por t</w>
bit te</w>
Bei spi
In st
or s</w>
meh r</w>
u n</w>
w n</w>
for m</w>
ge w
wur de</w>
g es</w>
automati cally</w>
o k</w>
en n
h e
S Q
all s</w>
di s
h at</w>
ta in
entsp rech
ic ro
ple ase</w>
star t</w>
ch oo
s ein</w>
at or</w>
HT ML</w>
ym bo
Q u
w ant</w>
di ffer
U R
el s</w>
la y</w>
dat ab
r e</w>
f a
Ord ner</w>
W ert</w>
e. g.</w>
e p
z us
G r
en s</w>
t ure</w>
ü tz
ges p
For m
k t
fol der</w>
re m</w>
l ö
vi ce</w>
Li ste</w>
o t</w>
an y</w>
h as</w>
set tings</w>
w .</w>
verwen det</w>
b rowser</w>
In formationen</w>
to p</w>
program me</w>
typ e</w>
l er</w>
ec ts</w>
se e</w>
lie ß
o m</w>
k eine</w>
versch ie
re qu
c op
w w
T ext
F il
Be feh
St ar
P H
P ar
A d
icro so
col or</w>
st or
Daten ban
w e</w>
we b
w ar
re kt</w>
n or
ti eren</w>
sch e</w>
po si
re e</w>
ü r
op tion</w>
ge t</w>
at eg
addres s</w>
choo se</w>
f eld</w>
E le
en de</w>
dies em</w>
d ra
d rü
m ess
l üs
tr ans
al e</w>
bestim m
ava il
b el
Ver sion</w>
al t
su pp
th er
PD F</w>
C o
än dern</w>
co un
t ro
il s</w>
meh r
docum ent</w>
D o
f e</w>
st ri
z el
Ih rem</w>
si de</w>
ru ck
w s</w>
val u
M icroso
ver y</w>
et c</w>
di es</w>
k te</w>
avail able</w>
ni s
d o</w>
con n
Beispi el</w>
ber ei
re en</w>
A l
n un</w>
stell ung</w>
tion s
si ze</w>
ch er
ar e
arbei ten</w>
las sen</w>
sch ließ
possi ble</w>
ang u
E- Ma
k l
w ri
gesp eich
s en
L -
lin ks</w>
N amen</w>
0 0</w>
s ehen</w>
Ü ber
an ce</w>
ün sch
t ei
p er</w>
s ame</w>
Microso ft</w>
wh ere</w>
vi ew</w>
tion al</w>
z .
ch ec
c lic
p a
p asswor
st and
mö chten</w>
fü g
c ess
f alls</w>
alo g</w>
datab ase</w>
In hal
St and
F eh
wh at</w>
du c
i es</w>
le gen</w>
ä t</w>
disp lay
der t</w>
de f
F enster</w>
indi c
char ac
ti ert</w>
s etz
htt p</w>
er ten</w>
SQ L</w>
W or
E ing
sol l</w>
m el
b is</w>
ä tz
Un ter
S tr
p ic
d a</w>
wh e
app e
us ing</w>
Ver zeich
o ben</w>
ä lt</w>
Benutz er</w>
op er
z. B.</w>
wi r</w>
ac cess</w>
dies es</w>
fi eld</w>
gew ünsch
ti es</w>
in clu
ch ang
unk t</w>
A do
se t</w>
program m
l en
Sp eich
P -
s ei
c er
differ ent</w>
re sp
b li
en te</w>
mar k
lay er</w>
amet er</w>
ä ch
PH P</w>
ne ue</w>
ent r
der s</w>
v ol
f lä
L o
Op tion</w>
dow nlo
G er
ri e
ein zel
z ahl</w>
k ey</w>
s ti
im por
es en</w>
zeich en</w>
gr öß
z wi
f unk
st r
i d</w>
ch er</w>
z eu
we en</w>
Sp i
curr ent</w>
col um
ma t</w>
be fore</w>
so ftware</w>
resp on
sel ected</w>
an other</w>
en d
ob ject</w>
ö r
b il
whe ther</w>
pr in
ug h</w>
Ado be</w>
ymbo l</w>
in to</w>
h ei
g abe</w>
For mat</w>
pr ü
st eht</w>
ander e</w>
speich ern</w>
Bil der</w>
em p
d am
zei gen</w>
li ke</w>
con tain
oh ne</w>
f ra
el t</w>
i p
v es</w>
o us</w>
li che</w>
sc reen</w>
K om
k op
bet ween</w>
b z
zwi schen</w>
führ t</w>
G ra
er stellen</w>
me di
ima ges</w>
lo s
2 00
N ach
D es
gli ch
en ce</w>
a der</w>
res ul
ta in</w>
des ired</w>
rech ten</w>
de o</w>
mö glich</w>
valu es</w>
ma in</w>
b ack
di rekt</w>
figur ation</w>
t t</w>
c li
def au
gespeich ert</w>
o f
un d
dam it</w>
vi du
n s</w>
m s</w>
im mer</w>
li chen</w>
form at
gen sch
it y</w>
sch ir
N etz
indi vidu
S ystem</w>
v ed</w>
wa ys</w>
ro r</w>
n am
er sch
ol s</w>
comm and</w>
bz w.</w>
S ystem
gen er
l on
l et
wie der</w>
disp lay</w>
ben utz
ro w</w>
passwor d</w>
E di
inst alled</w>
tho ut</w>
Adres se</w>
ar s</w>
su chen</w>
Comp uter</w>
la den</w>
net work</w>
h and
2 .
wi thout</w>
folgen den</w>
verschie den
Inst al
ent ation</w>
sta ste</w>
we i</w>
sion s</w>
display ed</w>
V ari
l angu
i x
at ing</w>
Ih r</w>
P f
z wei</w>
speci fi
e ch
ag a
E i
C h
Z eichen</w>
so ur
Ihr er</w>
M au
me tho
p as
gra m</w>
F -
st ütz
sp e
or der</w>
us ers</w>
T P</w>
ti k
en c
ti g</w>
Ver bin
ter min
func tions</w>
b l
ab les</w>
ac tiv
ar te</w>
U S
som e</w>
Men ü</w>
v om</w>
read y</w>
pl or
w o
öff nen</w>
Bild schir
hal b</w>
direct ly</w>
öff net</w>
re mo
cont ent</w>
1 .
d ungen</w>
I D</w>
re gi
cre ate</w>
ad di
C S
Mau staste</w>
f r
führ en</w>
j ects</w>
c ken</w>
ti fi
UR L</w>
hin zu
Ä n
fin d</w>
Re ch
lo ok</w>
de p
c al
min ist
n ach
Z i
Ex plor
di g
th an</w>
r el
ü ck
u la
O f
c ase</w>
z ur
Ih nen</w>
flä che</w>
se par
cor respon
ben e</w>
A k
it s</w>
u ri
S i
defau lt</w>
Netz wer
s ystem
vi el
Aus w
al en</w>
ble m</w>
t ung</w>
Ei gensch
er ror</w>
gra ph
c i
ti gen</w>
spi el
mö gli
Sc ript</w>
s ure</w>
L a
s at
las h</w>
Su ch
si cht</w>
clic king</w>
Zei le</w>
tra g</w>
p f
M ö
t em
ho to
A u
instal lation</w>
oo g
' t</w>
soll te</w>
sch rei
direct ory</w>
s ave</w>
ri gh
n ext</w>
ali si
st s</w>
des c
wel che</w>
al ways</w>
ä l
op tions</w>
lin k</w>
1 0</w>
enth ält</w>
ne h
b ack</w>
Mö glich
h än
po int</w>
bes ch
Z ug
Lin u
chec k</w>
B rowser</w>
D ruck
sec on
lo w</w>
au se</w>
da zu</w>
Explor er</w>
F eld</w>
f est
aga in</w>
s or
Dokum ent</w>
f ur
B u
g o</w>
U m
installi ert</w>
R ei
l s</w>
Funk tionen</w>
So ftware</w>
at h</w>
at es</w>
er r
dow n</w>
el ds</w>
ul ti
ev en</w>
rif f</w>
Mo du
I P</w>
we b</w>
ma ke</w>
vi g
Ihr en</w>
Sei ten</w>
c k</w>
O S</w>
be gin
ch i
applic ation</w>
neu en</w>
n ec
D e
ac t</w>
ab e
man y</w>
Fi re
dat ei</w>
mehr ere</w>
ti t
f y</w>
T o
ap pro
pro vi
weiter e</w>
n at
T r
setz en</w>
gl eich
stor ed</w>
A pp
ent ly</w>
Datenban k</w>
al ready</w>
pro duc
ei gen
mess age</w>
Tab elle</w>
coun t</w>
f on
no te</w>
li ty</w>
ei ch</w>
T ei
o ut
an g</w>
G oog
Befeh l</w>
se ver
p s</w>
Än der
An zahl</w>
mit t
th ei
l au
P asswor
man u
M e
än dert</w>
es ch
n ing</w>
B et
d el
M L-
lei ste</w>
pres s</w>
lüs sel
thei r</w>
ic on</w>
ele te</w>
n ung</w>
i den
sever al</w>
pro per
le v
z en</w>
th ro
Benutz er
S k
correspon ding</w>
wh i
pro gram</w>
Verzeich nis</w>
aktivi eren</w>
n er
rech ts</w>
web site</w>
b ec
je wei
wäh lt</w>
l er
re ad</w>
i ge</w>
an s</w>
n t</w>
di o</w>
Nach ri
tr ä
zei t</w>
ex p
Sch ri
e k
mo du
programm es</w>
bo ard</w>
al low
st än
l l
un ten</w>
i h
aktivi ert</w>
in e</w>
a u</w>
fü gt</w>
N ame</w>
p ages</w>
docum ents</w>
er halten</w>
entr y</w>
ula r</w>
s es</w>
re i</w>
on s</w>
ge stellt</w>
s k
A ut
dri ve</w>
g ri
F est
co m</w>
Linu x</w>
Goog le</w>
il fe</w>
Me tho
F o
po in
tra gen</w>
Re gi
s h</w>
s -
thro ugh</w>
S et
Far b
er i
P C</w>
ab out</w>
de o
ben en</w>
unter stütz
P r
o ff
ben ö
J P
sch n
e d
di alog</w>
dur ch
0 .
M P
so wie</w>
O K</w>
dies en</w>
fi elds</w>
C D</w>
e qu
Pro to
ent fer
un den</w>
nec ess
a ti
mo st</w>
m on
Gr öß
m em
cop y</w>
o ur</w>
cont ro
b ar
I N
ei ther</w>
st en
in put</w>
m u
h er</w>
colum n</w>
are a</w>
t ar
h t
elem ents</w>
ex ist
D V
fi ce</w>
C li
ig n</w>
ab ei</w>
hr en</w>
p ack
Sch alt
ab o
Er geb
T h
in de
s ung</w>
d abei</w>
X ML</w>
S S
f ace</w>
el der</w>
mo de</w>
langu age</w>
g s</w>
lo ad
ke y
Gra fi
Ex c
Star t</w>
individu al</w>
s av
s yn
Z eich
Fest plat
m is
F all</w>
er stellt</w>
a den</w>
Lin k</w>
ther e
O ut
Co de</w>
ob jects</w>
Instal lation</w>
star ten</w>
soll ten</w>
s m
sho ws</w>
neh men</w>
pic ture</w>
w er</w>
ne ed</w>
pl et
defin ed</w>
Z ah
Sp ra
al te</w>
pl ace</w>
n al</w>
f ul
contain s</w>
m ent
Wor d</w>
Men ü
e- mail</w>
at ely</w>
b asi
ch st
ol len</w>
a che</w>
af ten</w>
graph ic
we der</w>
am er
sim ple</w>
sh all</w>
P er
ein t</w>
x im
downlo ad</w>
in te
W erte</w>
ch es</w>
cer tain</w>
berei ts</w>
bec ause</w>
in s</w>
k top</w>
sch ie
inst all</w>
ne u</w>
do ch</w>
s ed</w>
aus wählen</w>
zus ätz
sel ection</w>
Op tionen</w>
Inhal t</w>
r ele
defin i
M y
Program me</w>
st ehen</w>
Par ameter</w>
Ar bei
th e
lö schen</w>
sel b
W i
ad d</w>
h el
Ma c</w>
a b</w>
. com</w>
vi deo</w>
charac ters</w>
in dem</w>
conn ection</w>
ge m
fur ther</w>
Anwen dung</w>
drü cken</w>
F lash</w>
Ber eich</w>
wä hr
pro cess
L e
m ei
Ar tik
st er
m t</w>
on ce</w>
l ar
Stand ard
Verbin dung</w>
d elete</w>
z wei
abo ve</w>
vari able</w>
Ta ste</w>
je der</w>
rei b
Größ e</w>
ä h
wa y</w>
ra y</w>
h ol
minist r
necess ary</w>
vi si
Of fice</w>
sc ript</w>
loc k</w>
geh en</w>
elem ent</w>
gel ö
p u
re fer
nis se</w>
Ele men
sch t</w>
Möglich keit</w>
el n</w>
alo g
s eh
e p</w>
D -
W ei
f e
w ollen</w>
as ed</w>
c ateg
posi tion</w>
d ort</w>
sour ce</w>
st ruc
G ru
z .</w>
o ver</w>
rie ben</w>
nor m
ber s</w>
de ta
funk tion
u tion</w>
Passwor t</w>
th ing</w>
Ausw ahl</w>
wor ks</w>
pl ac
s ing</w>
l ed</w>
ges etzt</w>
sei te</w>
K op
Obje kt</w>
er st</w>
de ut
il -
s weise</w>
all er</w>
ti fic
ag er</w>
Sch rif
Spi el
appe ars</w>
m ents</w>
ri chti
Gru pp
m at
entsprech enden</w>
fol gt</w>
N o
er sten</w>
m ulti
Ein trag</w>
ex ter
U p
j etzt</w>
k ed</w>
c ep
o ber
et s</w>
con figuration</w>
p ath</w>
M aus</w>
Dokum ente</w>
u pp
g ung</w>
ent weder</w>
Fi le</w>
rec or
Op en
wur den</w>
wie der
c alled</w>
vi a</w>
in s
wäh l
appro pri
t ten</w>
bel ie
di en
c ar
fo und</w>
c e
W e
w .
bei spiel
de vice</w>
lo g
drü ck
Exc el</w>
bu te</w>
gi ve</w>
p e
sch ni
son dern</w>
loc al</w>
H in
y p</w>
ersch eint</w>
me ans</w>
viel e</w>
om e</w>
lo g</w>
there fore</w>
sat z</w>
lin ken</w>
th em</w>
t ext
men ü</w>
wi th
appropri ate</w>
er y</w>
edi t</w>
V ie
wor d</w>
S ymbol</w>
M an
bi et
en ti
p unkt</w>
la ge</w>
rec t</w>
gro up</w>
ver füg
k or
Festplat te</w>
Feh ler</w>
lo ad</w>
ac count</w>
T it
dat ei
gel aden</w>
ter na
ne ben</w>
b al
re g
o l</w>
at en</w>
3 .
beispiel sweise</w>
supp or
2 5
indic ated</w>
währ end</w>
ph p</w>
chang es</w>
folgen de</w>
je de</w>
la st</w>
Far be</w>
K lick</w>
en ten</w>
selb st</w>
at tri
op en
metho d</w>
ww w.
o wn</w>
ach ten</w>
prü fen</w>
r yp
S h
u l</w>
o w</w>
o ver
ä r
ter n</w>
J av
enth alten</w>
sol len</w>
her unter
en ter
n äch
sin ce</w>
con fig
F r
sti ll</w>
lo ck
Po si
ym b
K omp
an den</w>
je doch</w>
M A
Jav a</w>
l ung</w>
zi ehen</w>
ein ige</w>
se l</w>
e very</w>
S -
comp le
lev el</w>
l etz
ma p</w>
wi chti
for der
as es</w>
allow s</w>
an schließ
de termin
ex ten
in i
Fire fo
whi le</w>
con ver
applic ations</w>
cl ass</w>
a tions
par t</w>
mo d
J ava
k ei
B utton</w>
P l
gro und</w>
' re</w>
g aben</w>
Pro je
secon d</w>
Sp alte</w>
rec ei
Out look</w>
yo ut</w>
ch ron
unterstütz t</w>
e ff
Zei t</w>
eich t</w>
H ilfe</w>
k ol
si cht
w are</w>
us er
ent ri
n ed</w>
einzel nen</w>
wri te</w>
an zu
co l</w>
amet ers</w>
Z ahl</w>
m l</w>
y ing</w>
an sp
Schalt fläche</w>
an el</w>
Eigensch aften</w>
au ß
En t
be en</w>
Vi deo
a st</w>
er zeu
en nen</w>
ex ec
R i
Änder ungen</w>
c all</w>
fil ter</w>
wi d
f er</w>
fol ge</w>
lon ger</w>
ex por
th ree</w>
with in</w>
datei en</w>
c al</w>
U ni
oo k
h ö
be arbeiten</w>
trä ge</w>
kop ieren</w>
se qu
sim p
n amen</w>
Firefo x</w>
My SQL</w>
in ner
fi g</w>
vi ces</w>
kom men</w>
format s</w>
gewünsch te</w>
ein stellungen</w>
tic al</w>
Elemen te</w>
bi lity</w>
gewünsch ten</w>
wh o
sh ed</w>
l esen</w>
p ass
s a
chst aben</w>
ul es</w>
seh r</w>
B esch
zus am
do u
M edi
impor t
f l
di g</w>
Aut o
dat en</w>
anschließ end</w>
aktu ellen</w>
cal c
Ver füg
v en</w>
ord in
ver s</w>
i en</w>
en ding</w>
cont ents</w>
h ard</w>
or ig
er mögli
wo uld</w>
H o
star tet</w>
ta ke</w>
resul t</w>
K ateg
I S
N e
f al
to ol</w>
M it
ke ys</w>
re tur
be st
Si cher
fin det</w>
mar k</w>
wi t
PD F-
Zeich en
au th
lo k
ver w
graphic s</w>
L auf
gra p
we ch
par ameters</w>
ori es</w>
d ruc
Set tings</w>
A tt
g u
pr int</w>
inner halb</w>
4 .
gr ei
Obje kte</w>
ti l</w>
L ö
del et
fü l
bel ow</w>
n utz
ex e</w>
Zah len</w>
an zeigen</w>
w ell</w>
stand ard</w>
sho w</w>
inter gr
e f
amer a</w>
co uld</w>
Con tro
j e</w>
al terna
ü ck</w>
st y
a ge
An zei
vari ous</w>
i gen</w>
or t
system s</w>
gl eichen</w>
vi r
ic k
us u
n ah
fa hren</w>
tic le</w>
N et
defin iert</w>
b re
row ser
f enster</w>
P ak
biet et</w>
l auf
B o
Verfüg ung</w>
Att ri
p lay
Zug riff</w>
Feh ler
G I
d rei</w>
un der
o c
bestimm ten</w>
ne l</w>
ma xim
au p
wor ds</w>
v an
cht ung</w>
den en</w>
bo th</w>
je des</w>
ann t</w>
Metho de</w>
L A
hinzu fügen</w>
g ame</w>
belie bi
I m
poin ts</w>
de st
d an
H intergr
C om
bei den</w>
E-Ma il-
c ard</w>
ti v</w>
Pro z
f ar
Anwen dungen</w>
Artik el</w>
k omp
ein mal</w>
M aus
str ing</w>
or g</w>
hän gi
HT ML-
num bers</w>
p ix
ah l
g o
Web site</w>
N utz
sp ace</w>
spe zi
M on
ange geben</w>
R E
las se</w>
entri es</w>
d -
de v
tr y</w>
le t</w>
P unkt</w>
s etzt</w>
arbei tet</w>
s or</w>
k n
entsprech ende</w>
E bene</w>
mel dung</w>
am es</w>
je dem</w>
er ste</w>
l ess</w>
ma s
vor h
D E</w>
uf en</w>
N a
un i
et a
- Datei</w>
Inter net
lei ch</w>
or en</w>
h en
installi eren</w>
P hoto
M S</w>
wech sel
c an
gel e
exist ing</w>
W erk
G e
k ein</w>
yn am
s ymbol</w>
E-Ma il</w>
orig in
Rech ner</w>
tit le</w>
c ap
en e</w>
t as
up dat
comp on
sho p</w>
A T
ta b</w>
t ly</w>
lin es</w>
ministr ator</w>
hi er
verschieden e</w>
ri eb
benö ti
da y</w>
T ex
wor t</w>
i c</w>
import ant</w>
Su che</w>
we ver</w>
ho wever</w>
K arte</w>
e mail</w>
ut es</w>
g re
pas sen</w>
gelö scht</w>
o ur
si tes</w>
con si
a tive</w>
activ ated</w>
1 00</w>
Sei ten
load ed</w>
back ground</w>
N um
ab len</w>
sig n</w>
s ur
Zei t
s ing
i hr
A S
pro blem</w>
er lau
ori z
op p
Posi tion</w>
dis k</w>
nam es</w>
C ook
li ste</w>
E R
verschieden en</w>
y -
Po st
schrei ben</w>
op ens</w>
Eing abe
For m</w>
gele gt</w>
I P-
pro cess</w>
uri ty</w>
om men</w>
el op
T yp
F elder</w>
righ t-
ei g
bin ation</w>
g leich</w>
funktion iert</w>
R es
wer t</w>
We b</w>
M P</w>
f rei
nor mal</w>
1 2
K l
u te</w>
bestimm te</w>
st eu
co ok
proper ties</w>
ch te</w>
5 .
kn ü
t te</w>
e ad</w>
Er weiter
wer e</w>
DV D</w>
sel f</w>
a tionen</w>
mo ve</w>
t est</w>
et te</w>
vorh anden</w>
P lat
b at</w>
unk te</w>
em ent</w>
si cher</w>
en en</w>
Bildschir m</w>
Bet rieb
par tic
B it
vol l
P ix
pro ject</w>
ein geben</w>
som e
a ft</w>
mem ory</w>
t al</w>
wen dung</w>
hi gh
g ni
al len</w>
kei ten</w>
ac tion</w>
wi ck
cli ent</w>
na vig
Far ben</w>
Ger ä
Dat um</w>
R o
to m</w>
Edi tor</w>
o us
w o</w>
g än
d ing
simp ly</w>
jewei li
ausge führt</w>
d u</w>
up date</w>
gesch los
oper ating</w>
F TP</w>
kt ur</w>
C tr
en ab
h and</w>
edi tor</w>
r un
b lei
contro l</w>
resul ts</w>
Do w
specifi ed</w>
tu al</w>
s st</w>
fon t</w>
Ele ment</w>
Fo to
bal d</w>
s wit
col ors</w>
k ur
Eing abe</w>
f ac
fra ge</w>
en ces</w>
Pf ei
S T
enc ryp
Betrieb s
im ple
be achten</w>
ges am
JP E
rip tion</w>
addi tional</w>
ar chi
k es</w>
Pro blem</w>
C P</w>
tur es</w>
br ary</w>
stat us</w>
dig it
St at
Ac ro
po st
desc ri
ro ot</w>
größ e</w>
g g
pu bli
prin ter</w>
ge benen</w>
f ree</w>
Speich er
enter ed</w>
so bald</w>
nach dem</w>
un til</w>
k no
inst ead</w>
modu le</w>
M ar
it em</w>
d ro
T I
lo b
sing le</w>
inter face</w>
En de</w>
par ameter</w>
i ed</w>
wei s</w>
cre ated</w>
auf ge
t re
it ät</w>
aus zu
l es
z un
chang ed</w>
ous ly</w>
ac tive</w>
Ver sion
P layer</w>
t tom</w>
qu es
aktu elle</w>
m ä
il l
Ta stat
enn t</w>
. php</w>
w ar</w>
O per
key board</w>
Vie w</w>
en z
en ame</w>
wid th</w>
ma in
t ables</w>
of f</w>
mo di
ab hängi
ermögli cht</w>
R A
An sicht</w>
s ection</w>
Re cht
auß er
E m
lüs sel</w>
H aup
x -
medi a</w>
ch o
speci al</w>
ru fen</w>
ins ert</w>
e asi
p hoto
unter schie
K ar
sm all</w>
pre vi
specifi c</w>
on der
ge fun
verfüg bar</w>
origin al</w>
K lasse</w>
aktu alisi
T im
ausge wählt</w>
Dow nlo
Ger ät</w>
e ben
emp ty</w>
r ate</w>
al y
s af
Netzwer k
addi tion</w>
p d
delet ed</w>
zur ück</w>
m er
zi eren</w>
in ser
einf ach
lo ok
Acro bat</w>
Vor sch
ge öffnet</w>
zeich net</w>
per son
ne e
A P
oriz on
st elle</w>
entfer nen</w>
inclu ding</w>
loc ation</w>
zu ge
St elle</w>
zur ück
downlo ad
ad j
ä u
zi ert</w>
d on</w>
ge drück
br au
C O
pres entation</w>
P N
. ht
ü l
pro file</w>
ra tion</w>
1 9
bo ttom</w>
Pf ad</w>
en st
chron i
ini ti
T he</w>
Netzwer k</w>
bo ok</w>
sav ed</w>
i g</w>
ver zeich
separ ate</w>
per i
be steht</w>
schni tt</w>
wei ter</w>
Na vig
el li
Java Script</w>
h eit</w>
bli o
G B</w>
Tei l</w>
ge ändert</w>
al ity</w>
p layer</w>
Ver wendung</w>
Photo shop</w>
gan g</w>
Komp on
qu ot</w>
con text</w>
visi ble</w>
rele v
st and</w>
ör ter</w>
benutz en</w>
Bu chstaben</w>
nutz en</w>
Speich ern</w>
ma chen</w>
k lick</w>
To ols</w>
b ased</w>
en z</w>
lä sst</w>
voll stän
gi ven</w>
en der</w>
supp ort</w>
en det</w>
be vor</w>
am m
ac cor
d ruck
dep ending</w>
cor rect</w>
an der</w>
pro to
remo ve</w>
Mo d
c le
hen folge</w>
com plet
dev elop
categ ory</w>
- S
utt ons</w>
Zei len</w>
h en</w>
li st
relev ant</w>
k ten</w>
up s</w>
s li
requ ired</w>
ie der
let ters</w>
Fil ter</w>
. exe</w>
unterschie d
Re ader</w>
I ma
öff ent
der en</w>
row s</w>
h abe</w>
d ynam
la gen</w>
grei fen</w>
R O
vari ables</w>
ge l</w>
ansp ar
st ep</w>
1 6</w>
Tit el</w>
P O
s enden</w>
co ur
al tet</w>
des ktop</w>
Vari ablen</w>
w oh
sch ei
An wei
Arbei ts
Ac cess</w>
g th</w>
pro t
ab li
Ctr l</w>
fol gen</w>
speci fy</w>
h is</w>
be we
typ es</w>
Nachri cht</w>
D ro
Di alog
m et
inst ruc
en -
Anzei ge</w>
fr ame</w>
ein ander</w>
bar en</w>
au dio</w>
ri ter
n te</w>
dar f</w>
Dat a</w>
Program m
h orizon
sp ä
er weiter
ar ray</w>
re spec
Ergeb nis</w>
sta ti
all er
k o
Tab ellen</w>
dra g</w>
per s
b it</w>
P S</w>
s ätz
li sts</w>
gen au</w>
pl ate</w>
1 1</w>
est abli
ser vice</w>
Contro l</w>
ul ar
Ma il</w>
M u
la un
über prüfen</w>
of ten</w>
T er
i .
G ro
arbei tung</w>
Spra che</w>
Des ign</w>
K o
inde x</w>
B rowser
wechsel n</w>
bu il
k now</w>
S yn
f re
fol ders</w>
berei ch</w>
B i
f est</w>
do es</w>
z er
ver sions</w>
Modu s</w>
at ch</w>
grap hi
K an
or ie</w>
hel p</w>
dar gestellt</w>
dur ing</w>
Vari able</w>
F ol
ausge wähl
Vi deo</w>
Spi el</w>
Haup t
Ein träge</w>
Proto kol
f o</w>
er ungs
sch ri
comple te</w>
Kon ta
D ar
il ed</w>
descri b
qu ery</w>
Tr ans
E R</w>
mä ß
eich e</w>
Stand ard</w>
ur es</w>
on line</w>
let ter</w>
lon g</w>
c ust
be deut
ver b
ol d</w>
fin i
einzel ne</w>
vi e
age ment</w>
adj ust
W ieder
appe ar</w>
kom mt</w>
M ak
näch sten</w>
par ti
f as
u ters</w>
u red</w>
for t
zei le</w>
s end</w>
geschlos sen</w>
pro ble
M B</w>
i li
struc ture</w>
colum ns</w>
a gram
pl ug
con di
st ru
sch on</w>
e .</w>
b lock</w>
ec k
d ings</w>
ar ch
mess ages</w>
o p</w>
di o
reib ung</w>
jewei ls</w>
la yout</w>
ge startet</w>
Proto col</w>
C -
ti ge</w>
gefun den</w>
di rec
dan ach</w>
F ra
d ah
a x
gan z</w>
T ag
con fir
ar row</w>
Rei henfolge</w>
Le er
lat er</w>
Ein stellung</w>
lä u
zu fügen</w>
ver bin
D B
b ein
2 0
re co
for t</w>
fig uri
desc ription</w>
Werk zeu
so le</w>
ig n
rei te</w>
ma de</w>
con f</w>
Grupp e</w>
t ex
M in
Dat ein
mei sten</w>
schn ell</w>
Lauf wer
Bildschir m
user name</w>
usu ally</w>
r ange</w>
R a
sec urity</w>
zusätz lich</w>
de l</w>
b lock
sp ra
Schri tt</w>
vi ron
gesch rieben</w>
charac ter</w>
. d
alt ung</w>
Di alog</w>
B asi
U T
1 2</w>
eigen en</w>
lo se</w>
as h</w>
E X
out put</w>
3 2</w>
S e
K enn
JPE G</w>
gra fi
st ore</w>
sp ro
to o</w>
Web seite</w>
Do cum
1 0
Ar t</w>
erlau bt</w>
calc ul
possi bility</w>
S ek
blio the
I D
bedeut et</w>
hei ts
Ihr es</w>
mar ks</w>
is ch</w>
erzeu gt</w>
Th em
CS S</w>
te ch
cour se</w>
ap e</w>
woh l</w>
er forder
Qu ell
to ol
Cli ent</w>
dar auf</w>
ag ra
y per
an gen</w>
N ew</w>
ver l
b in</w>
abhängi g</w>
pro ce
1 6
be findet</w>
Nachri chten</w>
kon figuri
di st
wi se</w>
z ed</w>
Inhal te</w>
low er</w>
H and
Edi t</w>
tim es</w>
c ell</w>
no t
instruc tions</w>
g riff</w>
G en
au m</w>
Foto s</w>
sim il
le ast</w>
eh r
attri bute</w>
addres ses</w>
sc rip
S ave</w>
su c
mo v
L es
ho st</w>
Version en</w>
U ser
g lob
wri tten</w>
A L
tific ation</w>
gri ff
i ch
f t
ex pres
Hin weis</w>
Sp alten</w>
zu greifen</w>
äch st</w>
us w.</w>
pic tures</w>
sho wn</w>
p anel</w>
ni tt
exec ut
O n
zun ächst</w>
ut s</w>
z e
Lin ks</w>
C I
form s</w>
fi ed</w>
pri v
pack age</w>
- Dateien</w>
s um
tiv ely</w>
neu es</w>
inclu de</w>
he ad
jeweili gen</w>
m p
c ut</w>
ex tr
ard ware</w>
op tional</w>
ma ils</w>
and s</w>
gen ommen</w>
i er
ober en</w>
Str ing</w>
ma cht</w>
kop iert</w>
ph p
d y</w>
cont in
s am
y e
s .
Kon text
end ar</w>
Sch lüssel</w>
S te
au en</w>
Aus gabe</w>
graphi c</w>
X P</w>
respec tive</w>
ima l</w>
benöti gt</w>
Zi el
ad ded</w>
it z
syn chroni
su cht</w>
um b
d .
nat ür
v ar</w>
ap s</w>
lie gt</w>
u lation</w>
m y</w>
al er
rech te</w>
ger ufen</w>
um e</w>
Ta g</w>
peri o
Window s-
äh n
w ür
bo ok
iden tifi
con fig</w>
em o
V ol
s ungen</w>
can not</w>
M as
er h
aller dings</w>
ber ech
car ds</w>
E ff
ang le</w>
de c
right- click</w>
st an
D is
Ar chi
D O
B oo
ph one</w>
i. e.</w>
z es</w>
ol o
ent ed</w>
stat t</w>
num mer</w>
maxim um</w>
mark ieren</w>
eh e</w>
defin e</w>
il y</w>
tar get</w>
dah er</w>
Des ktop</w>
su al</w>
kon ver
Z u
win dow
k ann
B ack
benutz t</w>
res ol
h in</w>
Spiel er</w>
in cre
ä tigen</w>
on -
ter m</w>
verzeich nis</w>
einge stellt</w>
r än
Be arbeiten</w>
Cook ies</w>
Besch reibung</w>
letz ten</w>
a de</w>
ul t
Star t
si ve</w>
am p</w>
2 0</w>
M E</w>
exter nal</w>
to ols</w>
außer dem</w>
gleich zei
am en
le gt</w>
K al
Druck er</w>
prü ft</w>
pr o</w>
ein fügen</w>
Kateg orie</w>
ß en</w>
z ul
da für</w>
ange ben</w>
W ort</w>
' ll</w>
pix els</w>
Po int</w>
PN G</w>
I C
ta gs</w>
sch alten</w>
len gth</w>
cook ies</w>
Man ager</w>
t ab
eigen e</w>
is su
ir d</w>
E N
w and
g ten</w>
H er
C ol
deta ils</w>
ge geben</w>
automati c</w>
N eu
Em pf
D N
off ers</w>
g keit</w>
ge k
ex is
wi s
t x
pre view</w>
des sen</w>
Di en
li tt
ev ent</w>
es sion</w>
fi x</w>
im medi
di stri
activ ate</w>
c ed</w>
ih n</w>
gr upp
d ungs
Adres sen</w>
Fil es</w>
T yp</w>
A lt</w>
p i
sh ort
g ed</w>
eben falls</w>
pp en</w>
process ing</w>
comp res
kom plet
herunter laden</w>
D ra
iden ti
Pro ble
provi des</w>
F F</w>
m in</w>
des ign</w>
knü pf
follow s</w>
versch lüssel
li eren</w>
cont act</w>
litt le</w>
am e
al ph
Ser ver
Datenban k
g um
si ert</w>
sicht bar</w>
us es</w>
s s</w>
pas st</w>
do main</w>
si cher
ru f</w>
C A
MP 3</w>
refer ence</w>
so fort</w>
Modu l</w>
do pp
hinzu ge
ul l</w>
fic i
ymb ols</w>
li ght</w>
K DE</w>
man ager</w>
ful ly</w>
schließ en</w>
Up date</w>
ck e</w>
cep t</w>
Po wer
ri cht</w>
navig ation</w>
Mar k
ful l</w>
X ML-
im port</w>
Kon figuration</w>
K no
val id</w>
ab el</w>
tr ue</w>
r an
mu ch</w>
g ar</w>
An t
vor hand
c .</w>
al ität</w>
zusam men
än ger</w>
op tim
em s</w>
Z us
Sch nitt
C ur
viron ment</w>
app li
f ang</w>
Nutz er</w>
Kon tro
HT TP</w>
de v</w>
de aktivieren</w>
ac es</w>
who le</w>
tiv en</w>
ch ed</w>
T CP</w>
ymb ol
verschie ben</w>
modu s</w>
zu erst</w>
wo bei</w>
E rei
lö sung</w>
fest legen</w>
Ter min
open ed</w>
le di
h ome</w>
c ro
Pix el</w>
Befeh le</w>
Ab schnitt</w>
Dar stellung</w>
tr anspar
bu tion</w>
Kom ment
simil ar</w>
än ge</w>
ar ticle</w>
manu ally</w>
S hi
t .
produc ed</w>
p -
Sc rip
form ul
än der
Ö ff
W ar
un t</w>
fi x
Tag s</w>
C D
JP G</w>
ge ther</w>
gi ves</w>
ang s
En gli
determin e</w>
je den</w>
D ruc
t ors</w>
benö tigen</w>
unter en</w>
entfer nt</w>
an aly
Ab bil
gen ann
S el
immedi ately</w>
R GB</w>
to gether</w>
recei ve</w>
O ri
si ch
Regi st
j ec
er ne
mäß ig</w>
M ess
mod ules</w>
P ort</w>
w ing</w>
th us</w>
kor rekt</w>
druc k</w>
Str g</w>
L E
Di rect
D opp
B l
Au dio
St y
k ation</w>
I P
re por
g in</w>
it or</w>
D eta
B -
web sites</w>
i ce</w>
w a</w>
ein zu
curr ently</w>
Sicher heits
ihr e</w>
entsprech end</w>
U N
cop ied</w>
gleichzei tig</w>
S ti
wel ches</w>
klic kt</w>
Dopp el
Hintergr und</w>
fi l</w>
pl an
- -
ble -
Aus g
lo gi
b y
GI F</w>
F re
gel n</w>
mitt els</w>
compon ents</w>
natür lich</w>
cal endar</w>
window s</w>
b uttons</w>
tho se</w>
ri chten</w>
si eren</w>
plac ed</w>
all es</w>
fo ur</w>
8 .
lie gen</w>
me as
f äl
ne w
T as
are as</w>
erk arte</w>
oo l</w>
li brary</w>
hand elt</w>
ep s</w>
wei l</w>
config ure</w>
Fehler meldung</w>
tex ts</w>
ma il
D A
wei sen</w>
mo del</w>
einge geben</w>
F in
sol ution</w>
der zeit</w>
Kon figur
stor age</w>
Bi bliothe
ta x</w>
In de
et was</w>
Str u
requ ir
S T</w>
enti re</w>
auf gerufen</w>
T em
3 D</w>
ch an
200 0</w>
einge fügt</w>
wir k
et c.</w>
Eigensch aft</w>
et wa</w>
ec k</w>
manu ell</w>
S ta
Program mi
ver ändert</w>
par agra
fil ename</w>
inte gri
metho ds</w>
ür z
dou ble-
- Taste</w>
Ex tr
li ch
ell s</w>
Pro du
com e</w>
Kon to</w>
F el
ein geb
bil d</w>
über tragen</w>
pres ent</w>
suppor ted</w>
gedrück t</w>
regi ster
ad ministrator</w>
te st
suppor ts</w>
geh t</w>
Op tions</w>
qu ick
s ent</w>
it self</w>
ff er</w>
f elder</w>
t ation</w>
M el
a ff
w all</w>
fül lt</w>
erne ut</w>
Op en</w>
re pe
ri ff
S E
zi p</w>
fig ure</w>
X -
Kom m
wor k
col l
upp er</w>
Rei he</w>
Dokum ent
K ur
C re
spä ter</w>
en ds</w>
Z wi
US B</w>
f ert</w>
c amera</w>
Tastat ur</w>
- -</w>
o ther
multi ple</w>
ex port</w>
Schrif tar
P ri
back up</w>
ze ug
s ymbols</w>
mis sion</w>
h äu
funk tion</w>
tei l</w>
stand ard
kl ein
format ting</w>
. org</w>
Kontext menü</w>
Ent wick
figur es</w>
a -
nah me</w>
Grafi k</w>
o ft</w>
er folgt</w>
wh o</w>
gel esen</w>
fra gen</w>
pro du
er -
com men
Form ular</w>
läu ft</w>
register ed</w>
es sion
T un
easi ly</w>
an ti
S ymbol
plat es</w>
other wise</w>
langu ages</w>
f rei</w>
ad s</w>
sh e
S ig
sch lüssel
l eich
ß t</w>
oo d</w>
Zwi sch
T rei
ele gt</w>
Z er
mehr eren</w>
B y
not wen
hinzuge fügt</w>
S W
un ic
sh ar
schließ lich</w>
gro ups</w>
en lar
inser ted</w>
h im</w>
min dest
an e
mindest ens</w>
ad ap
P unkte</w>
tx t</w>
f ern</w>
wichti g</w>
ques tion</w>
3 0</w>
be h
tem plate</w>
Sch lüssel
secon ds</w>
ef ul</w>
ho ch
verwen de
ell en
Öff nen</w>
inter pre
ic al</w>
enc y</w>
B reite</w>
digit al</w>
Pl ug
swit ch</w>
dri ver</w>
Pro per
5 0</w>
zwei te</w>
rü n
Ausw ahl
si c</w>
il t</w>
S S</w>
Adres s
h .</w>
ein stellen</w>
Re gel</w>
ex ac
ti erung</w>
sei ten</w>
re commen
n ess</w>
com par
Su b
un de</w>
di men
b utes</w>
n ungen</w>
F S</w>
Ar ray</w>
cher weise</w>
or ders</w>
fül len</w>
en der
Erei g
wor king</w>
ti er
d den</w>
wen den</w>
AP I</w>
us eful</w>
photo s</w>
mark iert</w>
ig er</w>
categ ories</w>
al le
exac tly</w>
defin ieren</w>
S M
b are</w>
au t
h app
A ll</w>
sel ben</w>
gi eren</w>
p op
g ilt</w>
sty le</w>
bu ch</w>
Ste u
proble ms</w>
tifi k
om e
Vi sual</w>
P re
zusam men</w>
log in</w>
ih r</w>
F e
B it</w>
ersch einen</w>
res our
n ers</w>
be d
an sicht</w>
p li
I n</w>
m y
si ehe</w>
Zi el</w>
who se</w>
es p
wer te</w>
E-Ma ils</w>
c ir
2 4</w>
man agement</w>
c ache</w>
S D</w>
ymbo le</w>
por t
so -
Proje kt</w>
tem por
f ul</w>
ar ds</w>
ac tions</w>
druc ken</w>
lic ation</w>
ge tr
ver y
p ur
l -
c los
e te</w>
R ah
Ori gin
quick ly</w>
tur n</w>
th em
i lity</w>
inde x
he ader</w>
st re
sch ein
in t
be finden</w>
st eps</w>
li b</w>
fest gelegt</w>
s qu
Inst an
bestim men</w>
Pr ä
D E
al low</w>
Downlo ad</w>
righ ts</w>
aus führen</w>
ne ten</w>
Kar ten</w>
T P-
richti g</w>
Bil des</w>
Di agram
tic s</w>
lok alen</w>
col our</w>
sh e</w>
fol low</w>
con tain</w>
sätz e</w>
Ser vice</w>
ß e</w>
al ten
H ö
vi er</w>
Leer zeichen</w>
H e
at e
P a
Com m
dat es</w>
sp r
. c
P or
U ser</w>
erforder lich</w>
ver suchen</w>
at ors</w>
I -
Attri but</w>
R ück
van ced</w>
tei lt</w>
ein zi
Per son
dou ble</w>
ac ts</w>
Regist erkarte</w>
arbei t
n ö
zu stellen</w>
Par ti
bo x
sub sequ
laun ch</w>
e very
For mati
Ac tion
star ted</w>
h il
Grafi ken</w>
ord net</w>
g ül
Wei se</w>
de ci
Änder ung</w>
gen au
Ima ge</w>
wel cher</w>
perio d</w>
ar o
gleich e</w>
par ts</w>
ec tor</w>
conver t</w>
re al</w>
inst ance</w>
00 0</w>
c es
bes t</w>
las h
Obje k
ge bene</w>
gan ze</w>
v o
p h</w>
Re fer
Ma il
Metho den</w>
s q
hei ght</w>
eff ect</w>
Gr und
Video s</w>
Anwen der</w>
N T</w>
trans fer</w>
riter i
dep end
I N</w>
P age</w>
attri butes</w>
so ci
proper ty</w>
high er</w>
en sure</w>
Les e
IP- Adresse</w>
L O
cur sor</w>
Typ e</w>
tech ni
ru p
di ent</w>
b ess
lat est</w>
ill a</w>
far be</w>
e y
2 -
updat ed</w>
proce dur
G es
Be dien
c ent
ah r</w>
di vi
poin ter</w>
Ver knüpf
R ec
1 5</w>
si ble</w>
ord ner</w>
p lay</w>
einf ache</w>
W A
retur ns</w>
programm ing</w>
j a</w>
Tex te</w>
s eine</w>
look ing</w>
for dert</w>
ti c</w>
C M
cl es</w>
Ta sten
ol der</w>
K ap
M ac
star ts</w>
app ly</w>
Mu si
bewe gen</w>
Schrif t
R emo
- 1</w>
recor d</w>
lo s</w>
b ung</w>
re as
at t
Auf ruf</w>
speich ert</w>
ser vices</w>
dar über</w>
ta ste</w>
r y</w>
Betriebs system</w>
ein s
P A
fe at
Werkzeu g</w>
L ei
best ätigen</w>
remo ved</w>
mas k</w>
ge führt</w>
z o
previ ous</w>
ori en</w>
Anwei sungen</w>
ar t</w>
Shi ft</w>
P anel</w>
prin ting</w>
establi shed</w>
edi ting</w>
ne g
min im
spe ed</w>
on g</w>
con s</w>
c on</w>
bet ter</w>
Sk rip
AS CI
op tionen</w>
an passen</w>
d re
Ergeb nisse</w>
Ad d</w>
.d ll</w>
y et</w>
fil l</w>
at er</w>
Extr as</w>
partic ular</w>
pa che</w>
ver ändern</w>
bo dy</w>
St u
qu ality</w>
W ord
Of fic
G esch
B es
sh are</w>
encryp ted</w>
s ession</w>
pl es</w>
M et
P u
Möglich keiten</w>
Grafi k
er setzt</w>
a hr
s em
bei de</w>
or gan
in gen</w>
Dialog feld</w>
Ak tu
bl ack</w>
ger ade</w>
person al</w>
SS L</w>
D B</w>
R and</w>
spiel en</w>
er n
at s
resol ution</w>
cor rect
Program ms</w>
re du
fr ames</w>
A pache</w>
vir tu
qu o
ho to</w>
Schri tte</w>
z ep
f ung</w>
as sig
ab sol
Instal la
inte gr
reco gni
bi li
V ist
Z elle</w>
in i</w>
dopp el
co ordin
ausgewähl ten</w>
sc ape</w>
au t</w>
einf a
r ules</w>
kl eine</w>
ange gebenen</w>
Abbil dung</w>
comm unic
ron g</w>
. j
zusätz liche</w>
regi ster</w>
er mitt
cor ner</w>
.ht ml</w>
begin nen</w>
b un
ab ly</w>
Zei len
P h
Eff e
tool bar</w>
hi dden</w>
th s</w>
de aktiviert</w>
en vironment</w>
c ases</w>
7 .
ser vers</w>
ori th
M ulti
g orith
ec ting</w>
exist s</w>
Men u</w>
b ri
Konfigur ations
sim ult
L s</w>
M aps</w>
La y
indic ate</w>
Stat us</w>
In Design</w>
A p
ome page</w>
e- mails</w>
schei den</w>
c r
Im port</w>
E-Mail- Adresse</w>
A s</w>
up load</w>
da von</w>
saf e</w>
hol d</w>
d au
a do
Bil dern</w>
weiter en</w>
pack ages</w>
er nel</w>
dig keit</w>
blei bt</w>
z illa</w>
cer tific
enab led</w>
aro und</w>
Sek unden</w>
Eingabe feld</w>
l ing</w>
l ange</w>
is ation</w>
i Tun
Zer tifik
Num mer</w>
spra che</w>
in gt</w>
führ ung</w>
whi te</w>
di c
Gen er
Datein amen</w>
E benen</w>
Sk ript</w>
ma tion</w>
f el
Er stellen</w>
zer o</w>
ma kes</w>
größ er</w>
Auf lösung</w>
o s</w>
ru n</w>
nee ded</w>
Vorsch au</w>
simult ane
lar ge</w>
Medi a</w>
basi c</w>
Program men</w>
ledi glich</w>
fon ts</w>
ac cess
Ex port</w>
k i</w>
ex ist</w>
be hin
Ar ticle</w>
ä ti
ti ppen</w>
li gh
ch ine</w>
Lö sung</w>
fi zi
Con t
begin nt</w>
equ al</w>
calcul ated</w>
La yout</w>
u ten</w>
describ ed</w>
ander es</w>
ri chtung</w>
ent lich</w>
S onder
G P
fra gt</w>
Vor lage</w>
no tification</w>
Pro fil</w>
suc cess
ne ws</w>
Ab frage</w>
correct ly</w>
comm ands</w>
t el
produc t</w>
an ts</w>
standard mäßig</w>
Vist a</w>
f s</w>
Ob ject</w>
tei l
n ern</w>
confir m</w>
schri ft</w>
k einen</w>
Speich er</w>
ser i
an t
ro me</w>
c lose</w>
aktualisi ert</w>
begin ning</w>
erzeu gen</w>
comp ati
mark ed</w>
il li
Pak et</w>
ser ver
entsp richt</w>
Sch reib
vi el</w>
Such be
Proble me</w>
Hö he</w>
coun ts</w>
Docum ent</w>
ur ch</w>
wis sen</w>
t ät</w>
c s</w>
horizon tal</w>
er fol
A N
sch er</w>
lev els</w>
h ardware</w>
d ür
F äl
oo m</w>
gen den</w>
enst ers</w>
vi deo
S V
regi st
aler weise</w>
accor ding</w>
Be ding
remo te</w>
p board</w>
Bo x</w>
ust r
3 -
Ex ten
zeich nung</w>
ang elegt</w>
US R</w>
S am
w örter</w>
sp aces</w>
mel den</w>
mö chte</w>
compon ent</w>
x y</w>
re f
open ing</w>
impor tieren</w>
Pfei l</w>
an y
C op
expor ted</w>
v ing</w>
f requ
bestimm t</w>
stri c
so wohl</w>
kno wn</w>
a k</w>
Protokol l</w>
Kompon enten</w>
En ter</w>
us r</w>
tho ugh</w>
ge wählt</w>
besch rieben</w>
Form ate</w>
sk lick</w>
so gar</w>
re pres
hi g
bein g</w>
M at
ell er</w>
b ly</w>
0 -
so- called</w>
ap p</w>
anzu zeigen</w>
Trei ber</w>
f ew</w>
ö ri
ak e</w>
the mati
E cke</w>
ti sch</w>
D ri
geh öri
C H
. de</w>
en zen</w>
datab ases</w>
complet ely</w>
1 -
S at
scrip ts</w>
mu sic</w>
cust om
behin d</w>
wieder her
vir tual</w>
In te
le ar
is ed</w>
err ors</w>
W er
g ood</w>
double- click</w>
ame work</w>
iTun es</w>
besch rei
g te</w>
Verzeich nis
gr und
ge gen</w>
est ed</w>
de -
A ch
pers ön
. x
auf rufen</w>
gesam te</w>
b ro
b ase</w>
om et
Or t</w>
Menü punkt</w>
B MP</w>
do m</w>
ar ti
H el
un s</w>
le -
sig nat
d ad
ach ie
Ver w
recor ds</w>
p ac
l d</w>
exten sion</w>
S ymbole</w>
P C
4 -
dri ves</w>
ab ility</w>
Unter stütz
L angu
execut ed</w>
comp uters</w>
b um</w>
Beispi el
som it</w>
i d
tas k</w>
rel a
k ette</w>
inclu des</w>
gin e</w>
ari es</w>
Pr o</w>
ge ts</w>
all ing</w>
Ko ordin
An fang</w>
ad minist
Ad ministrator</w>
provi ded</w>
auth en
K amera</w>
Ber i
Auf gaben</w>
star ting</w>
gen utz
Web -
some thing</w>
r ä
den n</w>
config ured</w>
T ele
ke ep</w>
N A
Laufwer k</w>
let s</w>
ausge geben</w>
gesch altet</w>
bit s</w>
Ta sten</w>
norm alerweise</w>
ma ins</w>
k ürz
. p
blei ben</w>
L E</w>
ak tiv</w>
Action Script</w>
oper ation</w>
on es</w>
zwei ten</w>
tu n</w>
Au th
refer ences</w>
tre ten</w>
benutz er
co des</w>
au st
re ff
ap ter</w>
un abhängig</w>
ri x</w>
neu e
go ing</w>
ge t
archi ve</w>
M L
L änge</w>
nee ds</w>
as y</w>
G E
ig nor
Kontro ll
k er</w>
cho ice</w>
Unterstütz ung</w>
p at
getr ennt</w>
z er</w>
tas ks</w>
prin ted</w>
bet ra
Ak tivi
amen ded</w>
Kap it
Dokum enten</w>
P ap
Datenban ken</w>
k arte</w>
V ir
loc al
Mel dung</w>
win digkeit</w>
Bibliothe k</w>
di gen</w>
O ber
kön nte</w>
be arbeitet</w>
Rah men</w>
g -
A ssi
p ap
qu er
i te</w>
conn ected</w>
best eh
6 .
g ungen</w>
fal se</w>
TI FF</w>
sec ure</w>
sch l
Dro p</w>
stell ten</w>
direc tion</w>
dad urch</w>
T ool</w>
erfol gr
s on</w>
re port</w>
steu erung</w>
retur n</w>
Mo zilla</w>
ä m
ent -
W örter</w>
set ting</w>
htt ps</w>
Programmi er
200 7</w>
Engli sh</w>
U hr
geb ung</w>
dis able</w>
cor rec
ge wähl
so fern</w>
d one</w>
gg ing</w>
Zug riff
M S
an k</w>
gener al</w>
f ession
exis tiert</w>
Al l
umb na
g y</w>
a st
re ader</w>
D ie</w>
Aktu alisi
v al</w>
com bin
H yper
Empf änger</w>
Zus am
sc ro
Ber ech
li mit
Kateg orien</w>
K lic
C D-
Tei l
z war</w>
druck t</w>
defini tion</w>
c ells</w>
beliebi gen</w>
Hintergr und
ch ts</w>
SQ L-
De fini
Aus druck</w>
d. h.</w>
A ni
ange passt</w>
Ge gen
Ein fügen</w>
zu gehöri
z ation</w>
hin ter</w>
automati sche</w>
ur ch
issu e</w>
ic k</w>
wieder hol
W ahl</w>
sp rün
an klicken</w>
Dra g</w>
simultane ously</w>
as soci
I con</w>
proto col</w>
alog ue</w>
Gerä te</w>
An gaben</w>
d r
ben en
Tim e</w>
vollstän dig</w>
Zusam men
Lin ie</w>
re placed</w>
re place</w>
ver größ
Maus klick</w>
A -
un c
i erung</w>
h t</w>
Deta ils</w>
ur sprün
m ist
Al le</w>
ä st
ta ge</w>
i sche</w>
Direct ory</w>
Inde x</w>
1 3</w>
sub ject</w>
et y</w>
dow n
In formation</w>
2. 0</w>
de vices</w>
ad res
A C
gra tion</w>
cl ass
Ad vanced</w>
fic ation</w>
S P
ho st
ge st
ein stellung</w>
expres sion</w>
Doppel klick</w>
Ber eiche</w>
pre par
el ec
Web server</w>
G -
lei tung</w>
am o
F I
fa st</w>
us h</w>
Ak tionen</w>
erh ält</w>
spezi fi
i des</w>
Lö schen</w>
des ig
read ing</w>
gli chen</w>
brau chen</w>
tic ally</w>
download ed</w>
berech net</w>
b ur
ch ing</w>
tr on
st ra
d ge</w>
ad van
wi esen</w>
so und</w>
pro b
be kommen</w>
be dien
ye ar</w>
n olo
it ems</w>
i schen</w>
einfa chen</w>
ac tu
Proper ties</w>
mar y</w>
pres sing</w>
in k</w>
An gabe</w>
y si
Recht sklick</w>
D urch
Kal ender</w>
p f</w>
in v
fer red</w>
com bination</w>
Ak tion</w>
form ate</w>
da ß</w>
co ding</w>
letz te</w>
geh ör
Power Point</w>
über geben</w>
spro gram
. g
pp ing</w>
l eicht</w>
einge tragen</w>
Such feld</w>
flä chen</w>
sc re
re start</w>
cont ri
chan nel</w>
short cut</w>
lie fert</w>
viel en</w>
video s</w>
ob je
lä r
k tur
U bun
Fäl len</w>
res s</w>
bl ue</w>
pd f</w>
d d
cre ating</w>
s hi
ra l</w>
lauf en</w>
sc ale</w>
ans wer</w>
To ol
Langu age</w>
Spra chen</w>
Maus zei
H il
th umbna
sh ort</w>
da ys</w>
verw alten</w>
hei ßt</w>
gesch ütz
c riteri
0 1</w>
rei s</w>
n ten</w>
Erweiter ung</w>
wh y</w>
si eht</w>
z äh
war ning</w>
ti tu
publi c</w>
l ang</w>
comm on</w>
D re
be zeichnet</w>
ver öffent
ni m
car ri
requir es</w>
Ne w
p ol
formul a</w>
bl enden</w>
Kon ver
Dokum ents</w>
S or
F l
ac ity</w>
. net</w>
A R
ter en</w>
tem plates</w>
list ed</w>
func tion
O R
sch rif
mo d</w>
kl einer</w>
direct ories</w>
Kop ie</w>
St re
si chti
s ent
en able</w>
ec tions</w>
de cl
oc c
de u
durch geführt</w>
Zwisch enab
X S
Gro ß
notwen dig</w>
gener ated</w>
g reen</w>
K E
P lay
ter e</w>
cli pboard</w>
Sonder zeichen</w>
Sig nat
P y
Comp u
num er
ver st
f oo
h ang</w>
wer k
th ird</w>
. conf</w>
ni chts</w>
l auf</w>
e kt
rec ip
in ation</w>
ax is</w>
e ar
Tab ellen
wür de</w>
Schnitt stelle</w>
Web seiten</w>
hin zu</w>
program m</w>
Form ul
inter nal</w>
8 0</w>
set s</w>
er setzen</w>
B r
tei len</w>
hig h</w>
Modu le</w>
Er stellung</w>
ver s
p hoto</w>
i de</w>
Benutzer namen</w>
Form ular
priv ate</w>
paragra ph</w>
ma gni
t or
Men ge</w>
pres sed</w>
pr ä
mögli cherweise</w>
g ab
S cre
w rong</w>
defini erten</w>
F A
l s
N ext</w>
t u</w>
regist ration</w>
griff e</w>
N or
ent wick
si des</w>
de m
beliebi ge</w>
at s</w>
Zwischenab lage</w>
In fo</w>
D eb
häu fig</w>
Di sp
6 0</w>
g ing</w>
eff ects</w>
ar ily</w>
Ver schlüssel
Stu dio</w>
sol che</w>
manu al</w>
um p</w>
integr ated</w>
in depend
funk tionen</w>
Ant wort</w>
v ector</w>
do k
certific ate</w>
UR Ls</w>
v en
qu e</w>
no tes</w>
k re
dar in</w>
be endet</w>
termin ated</w>
e valu
je derzeit</w>
in fo</w>
O N</w>
squ are</w>
te ten</w>
she et</w>
at oren</w>
posi tion
lei der</w>
encryp tion</w>
Ch rome</w>
C l
conn ect</w>
versch oben</w>
ver tik
pix el</w>
ob jec
horizon t
No ti
ustr ator</w>
n ungs
f ying</w>
K or
man do
char t</w>
verb unden</w>
previ ously</w>
ab led</w>
deta iled</w>
h inter
b ut
F u
ur en</w>
el ess</w>
al though</w>
F ir
enn ung</w>
as h
T e
Regi stri
ti me
ir gen
Vol l
all gem
N T
glob al</w>
th ilfe</w>
e asy</w>
complet ed</w>
al -
ular ly</w>
P L
über prüft</w>
nim mt</w>
in vol
dra wing</w>
Uni x</w>
Ger man</w>
D I
ing -
G N
tra gung</w>
produc tion</w>
defini erte</w>
M -
im pro
ges u
. ini</w>
sequ ence</w>
I den
nam ed</w>
kor re
ad at
a vi
ec i
25 5</w>
ex clu
updat es</w>
pers on</w>
oc cur
Li sten
g ut</w>
ed ge</w>
am end
ein deu
Hin zufügen</w>
fas st</w>
i ze</w>
e k</w>
dist ance</w>
Li z
cho sen</w>
be sten</w>
alterna tiv</w>
IS O</w>
z ah
p unkte</w>
is h</w>
err eichen</w>
dra gging</w>
an ima
äst chen</w>
l ler</w>
f ä
be kann
Tasten kom
Fo to</w>
pres ented</w>
condi tion</w>
charac ter
Ap p</w>
righ t
i se</w>
con sole</w>
Stru ktur</w>
ta kes</w>
parti tion</w>
i erten</w>
c le</w>
an ner</w>
te -
sch em
err eicht</w>
zeich nen</w>
f ri
con version</w>
N o</w>
dec imal</w>
an legen</w>
Mit te</w>
Ac tiv
tic k</w>
as sen</w>
Ubun tu</w>
Sh ell</w>
un it</w>
näch ste</w>
S ec
setz ung</w>
re stric
ex i
tei lung</w>
mi thilfe</w>
di rect</w>
S mar
M i
pap er</w>
las si
g n
al ette</w>
usu al</w>
su f
men us</w>
fort un
comm ents</w>
alterna tively</w>
genutz t</w>
T est
All gem
box es</w>
authen tic
Spra ch
Pak ete</w>
passwor ds</w>
mon itor</w>
f lo
e chti
ab gelegt</w>
Li brary</w>
t ele
di ge</w>
Dat ent
y es</w>
wi sh</w>
un ser
u re
ger ich
dra w</w>
L DA
Kenn wort</w>
Grupp en</w>
Benutzer name</w>
condi tions</w>
vorhand enen</w>
ac counts</w>
Kompon ente</w>
f -
an hand</w>
M al</w>
cust om</w>
cont acts</w>
w ard</w>
E v
ihr er</w>
Arbei t</w>
head ing</w>
CD s</w>
Ri chtung</w>
Au dio</w>
fortun ately</w>
actu ally</w>
R SS</w>
n on-
grap h</w>
tiv es</w>
contin ue</w>
ab ge
a y</w>
l ab
sch es</w>
ph ysi
m ern</w>
ir s</w>
Regi ster</w>
pr ac
form ed</w>
F lä
User s</w>
00 00
tifi zi
Z ellen</w>
Fil ter
sen der</w>
I MA
n ütz
la g</w>
genann ten</w>
fix ed</w>
exten sions</w>
mö glich
lin ke</w>
bo ot</w>
ASCI I</w>
post p
lin ked</w>
st ant</w>
T ech
Mauszei ger</w>
ver hin
indic ates</w>
li b
kt op
g ot</w>
norm ally</w>
konfiguri ert</w>
inclu ded</w>
er war
Re geln</w>
st op</w>
hö her</w>
Kop ieren</w>
H ä
medi um</w>
in ter</w>
System steuerung</w>
lo t</w>
ht ml</w>
contin u
len det</w>
Ach se</w>
pres sure</w>
m al
every thing</w>
el -
av o
Se arch</w>
Attri bute</w>
Kl ein
An meldung</w>
ver tical</w>
sav ing</w>
Be arbeitung</w>
s um</w>
adjust ed</w>
Per l</w>
A V
knü p
il er</w>
carri ed</w>
bi g</w>
bes onder
En d
al ter</w>
Vari an
requ est</w>
pur po
in formationen</w>
aktualisi eren</w>
CM Y
unterschied liche</w>
do c</w>
Verzeich nisse</w>
Tei le</w>
ver i
as si
Standard -
C R
Archi v</w>
lin e-
aus führ
ar ed</w>
verw altung</w>
3 D-
kon nte</w>
K ey</w>
Druc ken</w>
ti p</w>
li cher</w>
dynam ic</w>
P rü
LA N</w>
vor her
p g</w>
prot ected</w>
D OS</w>
ta g</w>
t ree</w>
kl einen</w>
gum ent</w>
war ds</w>
vor ge
ma themati
at or
amo unt</w>
T ru
wri ting</w>
fil ter
ta sten</w>
zei t
Net scape</w>
vor nehmen</w>
s s
P unk
D ig
Be wer
verfüg baren</w>
ip ment</w>
dimen sion
F rei
vol ume</w>
m erk
T -
rel ative</w>
load ing</w>
li ert</w>
konver tieren</w>
B I
determin ed</w>
S I
Instan z</w>
le er</w>
dok um
class es</w>
UT F-
Lay er</w>
A D
te te</w>
mon th</w>
gr enz
25 6</w>
t op
t au
right ness</w>
irgen d
er ungen</w>
er hö
transpar ent</w>
sav es</w>
m l
ähn lich</w>
richti gen</w>
Verknüpf ung</w>
vol l</w>
ne te</w>
H elli
e ben</w>
Dien st</w>
su che</w>
expor tieren</w>
ü bli
set up</w>
sc al
per man
dis abled</w>
un fortunately</w>
p rec
Obje kten</w>
Klic ken</w>
m entation</w>
gen de</w>
el i
MP E
In s
funktion ieren</w>
equ ipment</w>
ein st
Activ e
en s
2 5</w>
min utes</w>
Kom mando
Auf gabe</w>
bess er</w>
an k
stru ktur</w>
Navig ation</w>
sch war
KE Y</w>
s y
les he
T i
Dig it
C P
signat ure</w>
individu ally</w>
un ds</w>
Person en</w>
so dass</w>
fin ally</w>
v e
ges endet</w>
erk annt</w>
V ekt
R oo
P ass
ru s</w>
dra wn</w>
bu chstaben</w>
Rei ter</w>
st ent</w>
provi de</w>
dro p</w>
cre ates</w>
Funk tion
pre v
li mit</w>
clic ked</w>
Wor k
SM TP</w>
neg ative</w>
ran dom</w>
fr amework</w>
character is
Eing ab
verwende ten</w>
herunter geladen</w>
co ded</w>
al er</w>
T able</w>
num eri
U r
Daten sätze</w>
to -
bin ary</w>
re ally</w>
ma sch
h yper
et ten</w>
ei te</w>
repor ts</w>
i en
sour c
clic ks</w>
S um
Gener al</w>
up -
t em</w>
sor tiert</w>
ro uter</w>
Lese zeichen</w>
verbin dung</w>
stell ungs
Plug in</w>
K lassen</w>
Installa tions
s r
hän gt</w>
zu vor</w>
ser ies</w>
Ins ert</w>
wei st</w>
con f
N -
wen det</w>
amm ern</w>
tri tt</w>
t ory</w>
sp ell
fi re
rele ase</w>
Verbin dungen</w>
Cur sor</w>
A I
in ten
erk ennen</w>
display s</w>
Steu er
z ard</w>
weiter hin</w>
App le</w>
termin al</w>
mi r</w>
Pfei l
es se</w>
un like</w>
st ly</w>
pro files</w>
Zeit punkt</w>
p ad</w>
mis sing</w>
feh len</w>
f ass
ding ly</w>
Origin al
contain ing</w>
adat a</w>
Vor lagen</w>
ä re</w>
gän gi
distri bution</w>
M I
H and</w>
ques tions</w>
mi dd
gre ater</w>
e ver</w>
compres sion</w>
alterna tive</w>
R T
Be we
un s
komp ati
ar ten</w>
conver ted</w>
Text feld</w>
possi bly</w>
fac es</w>
SW F</w>
2. 16
wor ten</w>
vor genommen</w>
B in
hei ten</w>
a tion
graphic al</w>
begin s</w>
plac es</w>
elem ente</w>
cook ie</w>
S on
F ig
F ac
reg ul
b rie
ad ing</w>
wand eln</w>
mat eri
k in
f et
uf e</w>
entr ä
6 4</w>
sho t</w>
no thing</w>
cop ying</w>
br ack
Qu ick
wi ki</w>
sig ns</w>
mo bi
ff ern</w>
Per son</w>
Kno pf</w>
wen iger</w>
to tal</w>
ter ms</w>
gro ße</w>
gerich tet</w>
Fil e
Anwei sung</w>
g ers</w>
Kl ammern</w>
clos ed</w>
mobi le</w>
ati v</w>
Li sten</w>
sig ni
ie ten</w>
differ ence</w>
separ ated</w>
com es</w>
werk zeu
procedur e</w>
fil ters</w>
So ur
Kop f
deci de</w>
run s</w>
f angen</w>
e. org</w>
SS H</w>
zi eh
for man
G eb
recip i
produ ce</w>
komp ri
fer tig</w>
f all</w>
dat um</w>
beliebi g</w>
I S</w>
. txt</w>
S D
criteri a</w>
basi s</w>
Wei ter</w>
PH P-
Navig ations
tain ed</w>
stell te</w>
play ers</w>
ch mal</w>
prü fung</w>
erfolgr eich</w>
consi sts</w>
Schri ft</w>
i r</w>
Pr int</w>
Anwen dungs
st u
b rowser
K re
Dro p
D H
wä r
riter ien</w>
mem ber</w>
i de
fil led</w>
d t</w>
allow ed</w>
sin n
fici ent</w>
r en
4 0</w>
F F
st eh
plat z</w>
g sten</w>
associ ated</w>
ad min</w>
si s</w>
ge öff
S itz
Kapit el</w>
K ey
ge macht</w>
arbeit ungs
S how</w>
midd le</w>
dür fen</w>
Kom bination</w>
Ac count</w>
A B
führ ungs
fession al</w>
Lin ien</w>
ur s</w>
per at
com ment</w>
bil d
R un
wa hr
fl u
f t-
Py th
D elete</w>
richti ge</w>
fal sch</w>
block s</w>
Objek ts</w>
i erte</w>
ver tr
syn tax</w>
sc ann
S ter
C al
sat z
p i</w>
m us</w>
F on
Ex press</w>
i re
grupp e</w>
Stat us
Ph one</w>
gesam ten</w>
b rightness</w>
3. 0</w>
process ed</w>
modi fied</w>
ar ly</w>
Fre e
Betriebs system
äl t
ru ch</w>
ment ed</w>
in vi
ic s</w>
W ri
F ü
um s</w>
ru le</w>
beh avi
accor dingly</w>
Them a</w>
R u
DN S</w>
trans mission</w>
des halb</w>
Be darf</w>
t yp</w>
comple x</w>
ev ents</w>
be l</w>
S Y
Lo g
wa it</w>
vor her</w>
j o
ein igen</w>
Rech te</w>
Ac tive</w>
ver se</w>
t ats
ord nung</w>
kann st</w>
Form el</w>
publi shed</w>
on y
describ es</w>
be k
L ist</w>
Defini tion</w>
ta ken</w>
lok ale</w>
aus w
resour ces</w>
komplet t</w>
Über sicht</w>
fini shed</w>
auszu wählen</w>
ar ance</w>
1. 0</w>
st ate</w>
program s</w>
Uhr zeit</w>
Min uten</w>
neue ste</w>
compati ble</w>
assig ned</w>
ab geschlossen</w>
li k
do es
Cop y</w>
ta p</w>
nö tig</w>
Fra ge</w>
Do main</w>
19 2.16
rel ated</w>
lo op</w>
hin aus</w>
Co de
reg ular</w>
ma chine</w>
advan tage</w>
L age</w>
verschlüssel t</w>
u ght</w>
does n</w>
as ked</w>
re chen</w>
fas sen</w>
ent u
ent scheiden</w>
Pu bli
Gr und</w>
sm aller</w>
m a</w>
local host</w>
cont ra
Parti tion</w>
alph abe
em ents</w>
einst al
develop ment</w>
in hal
consi der
Schriftar t</w>
tats äch
sp ar
op tion
n ommen</w>
ac tual</w>
Ent fer
Boo k</w>
sur face</w>
UN I
192.16 8.
m m</w>
f ron
exam ples</w>
Tastat ur
sel ecting</w>
exter nen</w>
Qu ad
specifi es</w>
gi ert</w>
bet reff
Internet -
sor ting</w>
lin e
f au
duc ed</w>
Ta b</w>
appli ed</w>
Sicher heit</w>
di r</w>
LDA P</w>
sig n
on ders</w>
bes ser
Menü s</w>
k la
gr und</w>
c alls</w>
System s</w>
S im
ra ys</w>
prob ably</w>
out side</w>
konfiguri eren</w>
er st
con cer
Proz ess</w>
L L</w>
D om
mel det</w>
Sch lei
' ve</w>
requ ire
man age</w>
a ders</w>
Qu alität</w>
Konta kte</w>
9 .
lear n</w>
de t
run ning</w>
m d
gel ei
cle ar</w>
speich er</w>
loc ated</w>
gen en</w>
G U
Z ust
Um sch
stat t
stati c</w>
norm alen</w>
gen d</w>
ver knüp
trans l
schrif ten</w>
oper ations</w>
m p</w>
ge eig
appli es</w>
Hä k
Al ph
ck et</w>
ben ennen</w>
är en</w>
ver sucht</w>
fi t</w>
M ob
9 0</w>
gelö st</w>
ange zei
Ho ch
ti sche</w>
Sp e
Ser vers</w>
unterschied lichen</w>
mist ake</w>
besonder e</w>
man ag
hier zu</w>
Vie wer</w>
RO M</w>
t sp
imple mentation</w>
Ch eck
zuge wiesen</w>
x x
wä re</w>
impor ted</w>
DV D
Bl u
0 ,
forman ce</w>
bes ides</w>
al es</w>
An zeigen</w>
son st</w>
pro xy</w>
Ord ner
lin ien</w>
l le</w>
calc ulation</w>
lä t
j ob</w>
Zi ffern</w>
lo u
i cons</w>
communic ation</w>
Druc k</w>
Cook ie</w>
be halten</w>
al most</w>
Sam b
Ri cht
F ensters</w>
Ergeb nis
row se</w>
prot ection</w>
gr ü
g ungs
fin al</w>
chec k
chang ing</w>
bes onders</w>
PO P
Dien ste</w>
B lock</w>
sen det</w>
mit ted</w>
contro ls</w>
le ave</w>
ic ken</w>
T R
Suchbe griff</w>
Ab stand</w>
zu dem</w>
or e
ex cep
en o
em bed
Ober fläche</w>
8 6</w>
us in
some times</w>
p ra
an im
zo gen</w>
sub -
defau l
V B
na vi
gedrück ter</w>
b ig
ut z</w>
tu p</w>
he ben</w>
Wi k
format ted</w>
dri vers</w>
CA D</w>
me an</w>
di sc
di alogue</w>
alle l</w>
gro ß</w>
feh l
coordin ates</w>
adres se</w>
L up
H KEY</w>
Gesch windigkeit</w>
li cht</w>
b log</w>
Su pp
so on</w>
ma x
ko sten
Komment are</w>
ma ster</w>
gri d</w>
gl ass</w>
Th is</w>
bil der</w>
New s
k ernel</w>
ausgewähl te</w>
doppel klicken</w>
auth or</w>
regi stri
num ber
neu er</w>
ak zep
R un</w>
Funk tions
ver mei
tr an
ic kt</w>
b as
ac ks</w>
S ol
tivi ty</w>
lo go</w>
ec tive</w>
bin den</w>
Web sites</w>
P op
- up</w>
t ä
sty les</w>
Up dates</w>
er fahren</w>
cli ents</w>
wirk lich</w>
t liche</w>
f ar</w>
ac cep
Menü leiste</w>
re mains</w>
ex cept</w>
ad just</w>
Su chen</w>
CS V</w>
wei t</w>
el ine</w>
an c
Text datei</w>
I ll
schn ei
s eit</w>
plug in</w>
spezi elle</w>
navig ate</w>
Zugriff s
yo uts</w>
man ip
Open Offic
o th
met adata</w>
be feh
Sp alten
ma x</w>
f s
ein schließlich</w>
Sel ect</w>
Browser s</w>
par allel</w>
feat ures</w>
P ol
kon tro
en ster
al gorith
Plat z
Ad ministr
ück sichti
bek annt</w>
Symbol leiste</w>
Gegen satz</w>
B au
requ ested</w>
qu anti
m s
g s
e ds</w>
Druck er
pl us</w>
exten ded</w>
conn ections</w>
con struc
brack ets</w>
b ug
ander em</w>
25 5.
un den
stat ement</w>
sour ces</w>
res er
bu g</w>
W o
Häk chen</w>
Tastenkom bination</w>
F TP-
Aus führung</w>
sor ted</w>
in ed</w>
b ieten</w>
W erten</w>
Comp uters</w>
0 x
Datei system</w>
br aries</w>
z im
schrei bt</w>
g abe
bu tions</w>
Dat enträ
repres ents</w>
or ity</w>
nam ens</w>
be stehen</w>
trans ferred</w>
man uf
indic ation</w>
coll ection</w>
str ings</w>
di re
W ör
subsequ ently</w>
re -
per mis
in en</w>
P ath</w>
zuge ordnet</w>
si v
mei st</w>
iden tical</w>
UTF- 8</w>
t el</w>
pro jects</w>
p lic
ges ehen</w>
an z
typ ing</w>
gel ie
ch tet</w>
Sti ch
ver sehen</w>
te sten</w>
t ungen</w>
recommen ded</w>
Schalt flächen</w>
Sch n
GN U</w>
hi de</w>
ev entu
enter ing</w>
arti cles</w>
Kon sole</w>
Col or</w>
l abel</w>
ein richten</w>
di f
b ird</w>
Ar ten</w>
200 3</w>
W M
Proje kt
li g</w>
fire wall</w>
absol ute</w>
Ges am
Tas k
vi sion</w>
book marks</w>
posi tive</w>
f rü
Y o
Mo de</w>
vermei den</w>
ange gebene</w>
Verw altung</w>
steu ern</w>
proper ly</w>
p unk
all ery</w>
App lication</w>
re main</w>
forder ung</w>
del i
as k</w>
CMY K</w>
1 0.
prepar ed</w>
dar unter</w>
P S
persön lichen</w>
ord nen</w>
gel ad
F L
Dat a
Basi c</w>
war ten</w>
characteris tics</w>
Li ve</w>
sprogram m</w>
docum entation</w>
Helli gkeit</w>
Hel p</w>
Formati erung</w>
op le</w>
at titu
ac y</w>
Vor gang</w>
PDF- Datei</w>
GE T</w>
In fo
D u</w>
1 4</w>
exter ne</w>
ele k
J ahr</w>
trans lation</w>
über nehmen</w>
star tup</w>
gen e</w>
f low</w>
ch em</w>
appe arance</w>
ander er</w>
H ardware</w>
recei ved</w>
limit ed</w>
G n
ver klein
m eri
an ces</w>
M y</w>
st är
s ort</w>
al t</w>
De ut
ti ce</w>
t on
pac ken</w>
il d</w>
ge ment</w>
berei t
b ars</w>
W ir
Or gan
C ache</w>
ro ut
gel angen</w>
Schrif ten</w>
ge druckt</w>
N O
Mod ul
S af
Lup e</w>
Fr ame</w>
z oom</w>
be enden</w>
un ity</w>
beschrei bt</w>
kor ri
be .com</w>
as p
T o</w>
N i
Fra gen</w>
Benutz erk
be gin</w>
ange wendet</w>
y g
unter halb</w>
o -
B SD</w>
ut ori
schrei bung</w>
over view</w>
com po
G leich
hi st
fl exi
wel chem</w>
Sty le</w>
Pri v
Obje kt
le ere</w>
download s</w>
de posi
Fu ß
f .</w>
Basi s</w>
20 10</w>
sel ves</w>
n g</w>
er er</w>
ander s</w>
Res sourc
Ne u</w>
2 00</w>
yp en</w>
Platz hal
H O
su it
pl ex
H ome</w>
Con tri
An führungs
An aly
sen si
h omepage</w>
avo id</w>
V P
Ser vices</w>
pu b
dar an</w>
Ein zel
gespeich erten</w>
ein tragen</w>
U D
F enster
ma s</w>
ko di
fil es
al k
T ra
Cli ents</w>
über nommen</w>
se g
p t</w>
browser s</w>
Uni code</w>
Ro uter</w>
Le ft</w>
Komm uni
zi eht</w>
st am
se arch
program men</w>
partic ularly</w>
PD F
p e</w>
ho ch</w>
f la
E u
tei le</w>
Scrip t-
Mak er</w>
D rei
maxim ale</w>
ab bre
Compu ter
pa ar</w>
authentic ation</w>
Di stri
k an
by tes</w>
anima tion</w>
Plat z</w>
E benen
griff en</w>
bes itz
am ing</w>
Auth en
pra k
k el</w>
enlar gement</w>
Fel d
pe ople</w>
ab zu
u g</w>
Pap i
IMA P</w>
schn eller</w>
por tieren</w>
occ ur</w>
o w
ermögli chen</w>
des ign
konver tiert</w>
jeweili ge</w>
fa ster</w>
exp ected</w>
dre hen</w>
Musi k</w>
Diagram m</w>
1. 1</w>
res et</w>
i hren</w>
contra st</w>
bre ak
ann els</w>
T ri
Mon at</w>
Elemen ten</w>
9 9
OpenOffic e.org</w>
Mit gli
erk ennt</w>
R ol
Con ver
usin ess</w>
by te</w>
Auto mati
Ausg abe
Aus führen</w>
Verschlüssel ung</w>
Re qu
Ch ar
stri ch</w>
sig nal</w>
navi gieren</w>
aktu ell</w>
S it
Benutz ers</w>
in tro
f on</w>
Tele fon
zul etzt</w>
head ings</w>
ad aten</w>
verst ec
sten ten</w>
lat t</w>
erk lär
bili ties</w>
X ML
US ER</w>
Än dern</w>
sam ple</w>
le ads</w>
gener iert</w>
ber eit</w>
ak tiven</w>
ver geben</w>
function ality</w>
ell eicht</w>
4. 0</w>
separ ately</w>
ben e
Werk zeug
Ver fahren</w>
Ex change</w>
rec ru
Win dow</w>
tion ed</w>
s entation</w>
la g
ex change</w>
ar r
process es</w>
in es</w>
Formul are</w>
hinzu zufügen</w>
gesp i
comp iled</w>
Qu elle</w>
ver ges
subsequ ent</w>
comp any</w>
and elt</w>
Mon itor</w>
yp e</w>
So ftw
occur s</w>
extr act</w>
en di
edi tion</w>
Zertifik at</w>
F lash
vi elleicht</w>
kur z</w>
N ull</w>
magni fying</w>
ff en</w>
ermitt elt</w>
I B
buil d</w>
ado be.com</w>
Schriftar ten</w>
S ER
C T</w>
person s</w>
ge ord
ch apter</w>
Man agement</w>
siv ely</w>
i le</w>
compres sed</w>
Wi d
Such masch
K D
verbin den</w>
sch rän
fi ve</w>
Met adaten</w>
supp li
sol ange</w>
lin ie</w>
fü n
Ver schie
ts eite</w>
ic ally</w>
einfach er</w>
ck s</w>
ans wer
Ver halten</w>
Proje k
ra ti
oper ator</w>
l ungs
Proz ess
reas on</w>
read s</w>
en se</w>
dest ination</w>
Fire wall</w>
i Phone</w>
he ad</w>
cap acity</w>
M em
rü cken</w>
man chmal</w>
gek ehr
ul t</w>
di ag
Trans fer</w>
Kor re
B uttons</w>
determin es</w>
Erweiter ungen</w>
ch en
Lo c
- Funktion</w>
omet ri
besitz t</w>
System en</w>
St ellen</w>
Benutzer ober
Ad d-
yo ur
m us
gen annt</w>
eins tim
chec ked</w>
Gra ph
Anführungs zeichen</w>
An pass
sich ern</w>
eig ent
Zei tr
Inter face</w>
Con tain
at ter
G I</w>
. d</w>
sta irs</w>
k ehr
Mu ster</w>
Berech nung</w>
A s
them selves</w>
her aus</w>
gem eins
ex a
wichti gsten</w>
follow ed</w>
ST R
He ader</w>
rü ck
On line-
w ed</w>
tra hi
schl uss</w>
sch ied</w>
ma ps</w>
her unter</w>
N am
La den</w>
- in</w>
logi cal</w>
is on</w>
in st</w>
sch auen</w>
nah men</w>
i Po
f an
f am
durch führen</w>
contain ed</w>
qu ick</w>
Bet ra
Über tragung</w>
zah len</w>
wor den</w>
tt ing</w>
kl eines</w>
Bu ch
komplet te</w>
identifi ed</w>
g ent</w>
di t</w>
a der
Wieder her
Vor teil</w>
Be zeichnung</w>
vor kommen</w>
ti g
So und
POP 3</w>
ut ure</w>
stru k
re view</w>
ra di
photo graph
G u
w es
pat tern</w>
inter s</w>
Koordin aten</w>
ün schen</w>
w on
st age</w>
l and</w>
hän gen</w>
gewähl ten</w>
dat en
Inhal ts
um gekehr
saf ety</w>
recru it
pro z
impor tiert</w>
T ip
Back up</w>
sli de</w>
eno ugh</w>
M E
Fac e
Be deut
sk al
resour ce</w>
gel eg
Par amet
P G
Docum ents</w>
Des ktop
Daten satz</w>
Con n
user -
sp ent</w>
possi bilities</w>
pe g</w>
ber ücksichti
PO ST</w>
Be griff</w>
Über schrift</w>
mat rix</w>
exp la
partic ip
m om
ho ben</w>
gra de</w>
gem ä
ex act</w>
er gibt</w>
c at
P ic
permis sions</w>
gel ist
col s</w>
al bum</w>
aga inst</w>
PC s</w>
zugehöri gen</w>
schrei b
k ästchen</w>
Ber echti
r o</w>
hier bei</w>
gener ally</w>
VP N</w>
H a
einzel n</w>
di d</w>
d b
DB C</w>
process or</w>
new ly</w>
Wieder gabe</w>
Entwick ler</w>
ver ed</w>
under bird</w>
retur ned</w>
op port
bre ak</w>
Lin k
L S</w>
Cre ate</w>
tu ation</w>
pp ed</w>
plac eh
modi fy</w>
fre ie</w>
f lash</w>
embed ded</w>
edi ted</w>
ad ding</w>
Fr ames</w>
Form at
zu g</w>
kei ts
easi er</w>
N E
verges sen</w>
sh ell</w>
pro mp
mu ß</w>
identi fy</w>
ar t
Mak ro
G et
zei len</w>
sty leshe
el low</w>
ein gesetzt</w>
d pi</w>
Pyth on</w>
wel chen</w>
recor ded</w>
pro po
pd fs</w>
ft p</w>
mon it
Vekt or
Pfeil tasten</w>
PL U
Oper a</w>
vie ws</w>
mov ie</w>
con figur
G re
ww w</w>
oth ers</w>
manuf ac
I R
wichti ge</w>
h or
f uture</w>
vor zu
typ en</w>
t y
einzi gen</w>
drück e</w>
dar stellen</w>
Sch war
L ev
sh a
lö sen</w>
gro ßen</w>
an e</w>
ac le</w>
Effe kt</w>
An frage</w>
Signat ur</w>
vorhand ene</w>
sinn voll</w>
pa ths</w>
gesu cht</w>
bes u
val i
plug ins</w>
th ink</w>
s äm
j ump</w>
it zen</w>
h len</w>
lin k
key words</w>
Befeh ls
sec tions</w>
mov ing</w>
fa de</w>
extr a</w>
enth alten
Fig ure</w>
ver arbeitet</w>
ob wohl</w>
Termin al</w>
S et</w>
R el
Form aten</w>
F av
un its</w>
li sten</w>
feh ler</w>
administ ration</w>
lo st</w>
fron t</w>
er folgen</w>
ei gensch
co ver</w>
choo sing</w>
IN S</w>
enn zeichnet</w>
We g</w>
US B-
Net work</w>
re tri
play back</w>
außer halb</w>
Pro file</w>
DH CP</w>
C C</w>
g ie</w>
sh ing</w>
in f
f te</w>
ban k</w>
S O
objec tive</w>
A P</w>
verl oren</w>
lich keit</w>
ex ce
at ta
Her stell
Auf nahme</w>
1 1
unterstütz en</w>
re gel
incre ase</w>
gelei tet</w>
etz en</w>
a .</w>
Pass wörter</w>
8 -
stre am</w>
h ält
genann te</w>
ach richti
Samb a</w>
s can</w>
per formance</w>
mögli chen</w>
en gli
hil ft</w>
happ en</w>
grafi sche</w>
Zeichen kette</w>
Tip p</w>
Benutz ern</w>
ne ver</w>
in to
Sh are
B ü
won ach</w>
vi su
ge zeigt</w>
execut able</w>
ari th
ans on
T est</w>
wahr schein
u ch
mi ght</w>
max imal</w>
esp eci
eben so</w>
ak tive</w>
wer ten</w>
se ems</w>
exec ution</w>
AT E</w>
on g
off line</w>
l än
ch annels</w>
Allgem ein</w>
r t</w>
p alette</w>
gen ü
com ing</w>
NA ME</w>
uni que</w>
lei sten</w>
especi ally</w>
e an</w>
Kontroll kästchen</w>
un less</w>
tifizi erung</w>
success fully</w>
anson sten</w>
. s
werkzeu g</w>
pre fer
pp t</w>
dep th</w>
bo o
Ord nern</w>
ther more</w>
si chten</w>
lok al</w>
Er k
Effe kte</w>
scro ll</w>
ro t
produc ts</w>
E mail</w>
7 -
.j pg</w>
- Menü</w>
uns ere</w>
um gebung</w>
par t
es sen</w>
emp fo
d ar</w>
an wenden</w>
ad d
T re
Bildschirm les
schnei den</w>
me an
sen ding</w>
proce ed</w>
ktur en</w>
ges ich
cht -
bi sh
Su cher
sub sc
prin ci
m m
i an</w>
ge gen
fur thermore</w>
Unter schied</w>
O R</w>
Flä che</w>
Anzei ge
s einer</w>
ni e
independ ent</w>
Schlei fe</w>
Li st
Dokum entation</w>
Beding ungen</w>
your self</w>
tion ary</w>
Vi el
RA M</w>
R F
Mac into
C GI</w>
bewe gt</w>
Sucher geb
los s
PDF- Dateien</w>
Lei ste</w>
En tw
en gine</w>
da ma
Benutzerk on
er ter</w>
er ased</w>
K B</w>
Ill ustrator</w>
Audio -
up loaded</w>
or ed</w>
imple mented</w>
hal tet</w>
fre ely</w>
einge bet
achie ved</w>
Web browser</w>
Vorsch au
Qu ery</w>
P ack</w>
Bedien feld</w>
pre defined</w>
happ ens</w>
Speicher platz</w>
mas ke</w>
kom bin
gli che</w>
Sum me</w>
Mod ell</w>
tech nolo
sti tu
recor ding</w>
net works</w>
app s</w>
V al
manufac tur
komp ili
f f</w>
ant wor
amer as</w>
WA V</w>
L aut
pr inters</w>
feh ler
erweiter t</w>
po ten
cir cle</w>
Werkzeu ge</w>
Kno ten</w>
Contri bute</w>
th ings</w>
shar ed</w>
hr t</w>
divi ded</w>
dif fic
ac c
H omepage</w>
vollstän dige</w>
er gän
Bildschir ms</w>
vergröß ern</w>
ur l</w>
ti schen</w>
ü bri
ter t</w>
stän den</w>
php .ini</w>
m d</w>
en ables</w>
amm lung</w>
Musi k
App Data</w>
tit les</w>
Zug ang</w>
zei ge</w>
suit able</w>
scre en
rect angle</w>
c ast</w>
appro xim
amend ments</w>
S en
I F</w>
vari ant</w>
and -
U p</w>
St ri
Kon tra
fi ts</w>
L T</w>
D as</w>
inter faces</w>
besch rän
Prä sentation</w>
z ut
proto cols</w>
materi al</w>
h ad</w>
Str ings</w>
Ereig nis</w>
An merk
ti erten</w>
nütz lich</w>
dur ation</w>
bar keit</w>
b ul
o g
li braries</w>
gespi elt</w>
cop ies</w>
b reite</w>
Ab schni
Komment ar</w>
I f</w>
stati s
in form
adjust ment</w>
ach ed</w>
Dri ve</w>
su do</w>
norm ale</w>
iPo d</w>
cli p</w>
ab geb
Verbin dungs
Benutzerober fläche</w>
we a
h r</w>
ed ges</w>
d ll</w>
I E
ph s</w>
gemä ß</w>
as c
P P
B lock
develop ed</w>
D rücken</w>
A 1</w>
3 00</w>
feat ure</w>
erlau ben</w>
Speicher ort</w>
st opp
ru ft</w>
geb r
ci d
besch ä
b lick</w>
En er
Des ig
am s</w>
Plat t
tit el</w>
st ation</w>
con stant</w>
ti al</w>
lä dt</w>
ak tion</w>
a p</w>
S em
IP v
By te</w>
statt dessen</w>
repe at</w>
in it
L ie
um in
en er
an zeigt</w>
Beispiel e</w>
ac ing</w>
Konta kt
Ab kürz
12 8</w>
kontro l
brau cht</w>
Si ch
Be st
w at
vor gang</w>
laun ched</w>
initi ali
entsp rechen</w>
R et
Or acle</w>
D ynam
paragra phs</w>
nie dri
ein gerichtet</w>
Zeitr aum</w>
Spe zi
- F
tempor ary</w>
pre fix</w>
meas ure
lou d</w>
gesch i
eg al</w>
b lät
Tr anspar
Dom än
DVD s</w>
An klicken</w>
ar i</w>
ange bo
Erweiter t</w>
off er</w>
et oo
auf gelist
W un
T age</w>
Neu start</w>
Downlo ads</w>
gew andelt</w>
defin es</w>
W en
M S-
Datein ame</w>
Ani mation</w>
sum mary</w>
gg f.</w>
ar rows</w>
abbre vi
8 8
s ym
di tor</w>
c m</w>
Tex te
R G
M D
DV D-
C enter</w>
m als</w>
loc ally</w>
li ches</w>
exec ute</w>
Pak et
ti e
Mo di
Beding ung</w>
fil m</w>
T E</w>
Java -
ursprün glichen</w>
st ung</w>
expres sions</w>
exam ple
contain er</w>
br ingen</w>
Server -
Kan al</w>
purpo se</w>
bein haltet</w>
Sitz ung</w>
C UR
Blu etoo
Bildschirmles e
gül tig</w>
du e</w>
wir kt</w>
verwende te</w>
ta k
activ ation</w>
Noti zen</w>
B ar
Aut or</w>
rei ben</w>
in -
erwar tet</w>
Ressourc en</w>
O D
1 ,
tri g
st amp</w>
ra ft</w>
postp on
ho urs</w>
Pro gram</w>
om en</w>
la u</w>
geöff neten</w>
Vor der
C ust
ä t
mo ved</w>
li z
in ing</w>
E S</w>
' m</w>
for table</w>
bed ingt</w>
alisi ert</w>
Face book</w>
ä le</w>
wer k</w>
ro om</w>
r ename</w>
on n
minim um</w>
exp lic
ein -</w>
bes itzen</w>
auf treten</w>
Feh l
vertr au
seri al</w>
n or</w>
fä hi
et ing</w>
con tr
quer ies</w>
princi ple</w>
le eren</w>
contro ll
auß er</w>
T A
P ort
success ful</w>
s p</w>
po wer</w>
mel dungen</w>
Ele ments</w>
Al gorith
steu ert</w>
reas ons</w>
l us
Spi els</w>
H ist
Bu chst
Aktualisi erung</w>
ver fügt</w>
u be</w>
thumbna ils</w>
require ments</w>
r ing
Macinto sh</w>
Bedeut ung</w>
um es</w>
tifi ed</w>
pa in
hel fen</w>
ausw ahl</w>
Zah len
Fil m</w>
ur n</w>
ing u
c lassi
Th underbird</w>
- Format</w>
hal f</w>
emp fehlen</w>
Lo go</w>
3 2-
t wi
organ i
expor tiert</w>
do c
c uts</w>
Kar ten
z ahl
we g</w>
re duced</w>
ma g
geschütz t</w>
coun try</w>
P IN</w>
Kon ten</w>
sor tieren</w>
ins besondere</w>
gel ten</w>
d .</w>
sch lüssel</w>
requir e</w>
k ennen</w>
PLU G
F 2</w>
wiederhol en</w>
t lich</w>
spr ingen</w>
ge fragt</w>
er tes</w>
di agram
b au</w>
a in</w>
Gro up</w>
D T
frei ch</w>
buil ding</w>
Text es</w>
Ma xim
Konta kt</w>
K e
Er ror</w>
y ment</w>
w ann</w>
verw altet</w>
t f</w>
si ty</w>
einfach em</w>
P in
mo stly</w>
hil freich</w>
gehör en</w>
Z w
US E</w>
S z
zusätz lichen</w>
wi de</w>
grupp en</w>
Kommuni kation</w>
- Methode</w>
spezi ellen</w>
recommen d</w>
new s
eventu ell</w>
basi ert</w>
PLUG INS</w>
Datei format</w>
An leitung</w>
4 0
1 7
sch icken</w>
r and</w>
genau so</w>
eingeb unden</w>
cro s
ac ces
Sch alter</w>
9 9</w>
si erung</w>
multi -
la r</w>
f ach</w>
ac cur
Inter pre
9 5</w>
str y</w>
stand s</w>
ra ther</w>
qu ite</w>
ma cr
macr o</w>
av ing</w>
. b
re stored</w>
Pro fessional</w>
N U
Lo cal</w>
Ant worten</w>
Al bum</w>
su per
far ben</w>
einzi ge</w>
di erung</w>
an statt</w>
Y a
Sec urity</w>
Registri erung</w>
E PS</w>
verknüp ft</w>
verhin dern</w>
s tim
re st</w>
mat ter</w>
Fel dern</w>
hel ps</w>
a way</w>
Sour ce</w>
t ungs
imple men
gro up
M B
9 8</w>
rati o</w>
por ts</w>
be grenz
aufge führt</w>
C S</w>
Assi stenten</w>
Active X</w>
s einen</w>
go es</w>
eigensch aften</w>
G L</w>
Dat um
Bit -
virtu ellen</w>
unser em</w>
lay ers</w>
h eren</w>
b ed</w>
Ein satz</w>
wahrschein lich</w>
r ing</w>
or ing</w>
ell es</w>
K in
Fol der</w>
Cont ent</w>
200 8</w>
tatsäch lich</w>
i -
Syn tax</w>
Pro fil
Datenträ ger</w>
re store</w>
or it
ih rem</w>
Sat z</w>
M ini
1 5
tr ack</w>
sh ape</w>
l ying</w>
fün f</w>
des t</w>
an ted</w>
N ein</w>
G l
w atch</w>
hier arch
Her unter
Datei größe</w>
u ch</w>
säm tliche</w>
lo gs</w>
le ad</w>
identi sch</w>
Wen n</w>
Groß -</w>
ma cro
inte ger</w>
d einstal
d b</w>
compar ison</w>
at ten</w>
Vor einstellungen</w>
Platzhal ter</w>
K riterien</w>
K ernel</w>
de ck
approxim ately</w>
anzu geben</w>
Produ kt</w>
Bildschirmlese programmen</w>
simp li
men ge</w>
initi al</w>
en des</w>
cle arly</w>
benöti gten</w>
aler ie</w>
Star tseite</w>
SV G</w>
E l
B ri
suf ficient</w>
pl an</w>
gek ennzeichnet</w>
ec ke</w>
dra w
as sign</w>
Kontro lle</w>
Fin der</w>
EX E</w>
vor sch
nis sen</w>
l änger</w>
folgen des</w>
eig entlich</w>
c alling</w>
S U
Pro vi
D R
wechsel t</w>
W ech
F 8</w>
über sch
um gewandelt</w>
r eicht</w>
ol ean</w>
angezei gten</w>
Al t-
kin d</w>
h n
X HTML</w>
UNI X</w>
T E
2 2</w>
lo wer
c enter</w>
F- Datei</w>
zu weisen</w>
necess arily</w>
men ü
f av
Por table</w>
I ni
ler nen</w>
ex it</w>
ein trag</w>
Wri ter</w>
T on
Nutz ung</w>
K reis</w>
rel ativ</w>
forma tiert</w>
No te
1 3
trans action</w>
Zust and</w>
speci fic
m eine</w>
ge folgt</w>
equ i
thumbna il</w>
spell ing</w>
or der
invol ved</w>
gr ün
ac cept</w>
S E</w>
P ack
Ho st
Ab satz</w>
2 1</w>
pp er</w>
ei ght</w>
develop ers</w>
Zeichen folge</w>
Pr in
zun eh
wor ld</w>
un bedingt</w>
li est</w>
it ly</w>
ermitt eln</w>
ass ess
accep ted</w>
Ver gleich</w>
plat form</w>
erweiter n</w>
do cs</w>
Fe at
A t
ä hr
ti erte</w>
fo c
d lich</w>
behavi our</w>
Um geb
tri angle</w>
duc tion</w>
ass en
Sch em
Lauf zeit</w>
K u
Funktion alität</w>
An mel
wir eless</w>
w eich
nat ur
lar ger</w>
frei en</w>
for men</w>
Ra di
Kal ender
Ho st</w>
1 8</w>
z entr
P ress</w>
Disp lay</w>
Be gin
qu elle</w>
pre -
mem bers</w>
le .com</w>
den ken</w>
be ziehen</w>
al k</w>
Supp ort</w>
Di enst
sq l
redu ce</w>
pres sion</w>
Wei ter
Varian te</w>
Tas k</w>
0. 1</w>
correc tion</w>
auf grund</w>
sen ds</w>
p id</w>
n ap
kur ze</w>
geschi eht</w>
err eich
1 .</w>
öffent lichen</w>
veri fy</w>
aus sehen</w>
Schn ell
Requ est</w>
In di
ro t</w>
perman ently</w>
elec tron
auf geb
Schrift größe</w>
Post gre
De fau
ymbo li
hoch laden</w>
esp ace</w>
k ung</w>
Z o
Start menü</w>
Co des</w>
By tes</w>
zul ä
t on</w>
sy s
stän dig</w>
recruit ment</w>
geschlos sen
gener ate</w>
er füllt</w>
ent ally</w>
ad d-
O ff
Eing aben</w>
w ra
tem perat
sensi tive</w>
plat zieren</w>
na tional</w>
gesich ert</w>
re member</w>
proto kol
pi ec
mi x
eta ste</w>
enlar ged</w>
el se</w>
benutzer definierte</w>
M O
An hang</w>
kompri m
entwick elt</w>
eich s</w>
au er</w>
GU I</w>
Entw ur
Con nec
Comm and</w>
k ün
in side</w>
ack er</w>
Sc an
Konfigurations datei</w>
- Fenster</w>
zim al
ob s</w>
inst alling</w>
fa hr
ex ak
coordin ate</w>
consi der</w>
co de
De vice</w>
Be griffe</w>
veröffent licht</w>
inter rup
b order</w>
re a
pri ce</w>
Task leiste</w>
Ima ge
ver fügen</w>
sa y</w>
no de</w>
mo un
Ne ue</w>
N amen
files ystem</w>
Um gebung</w>
Eu ro
B ank</w>
.x ml</w>
zurück gegeben</w>
ip edi
fass ung</w>
Beri cht</w>
umgekehr t</w>
prä sen
fest zu
E ar
z z
m ut
inter val</w>
in c
dro p-
b all</w>
an zeige</w>
M al
run time</w>
recipi ent</w>
mögli che</w>
mat ch</w>
Mas ke</w>
Aus richtung</w>
Al terna
w on</w>
ver age</w>
mark ierten</w>
ex trahi
as ing</w>
lic ence</w>
h exa
drück t</w>
Roo t</w>
Gra d</w>
D er</w>
CS S-
An f
unc tion</w>
ober e</w>
ar gument</w>
analy sis</w>
access ed</w>
Scre en
L esen</w>
stra i
ru f
ro und</w>
com fortable</w>
aufgelist et</w>
wen ig</w>
vor lage</w>
ul l
r ent</w>
mo dem</w>
bedien feld</w>
aus geb
Offic e-
ung sp
sli der</w>
Wör ter
F ern
C y
.ht m</w>
w d</w>
stand ar
rel ations
op ti
Linu x-
K -
F ahr
st ro
deta il</w>
cur ve</w>
be ding
Be arbeitungs
Ausg ab
p la
drop- down</w>
auf en</w>
K at
z ing</w>
ref ers</w>
häu fig
hält nis</w>
Z oom</w>
Mit tel
r ender
los s</w>
Kon stan
www. adobe.com</w>
st ab
kl u
alisi erung</w>
Wor ld</w>
P fade</w>
Gesam t
3 6
ver besser
de bug
be zieht</w>
algorith m</w>
Scre en</w>
wer tet</w>
ssi g</w>
procedur es</w>
g ames</w>
feh lt</w>
durch suchen</w>
but ed</w>
Kontra st</w>
pass ed</w>
empfo hlen</w>
diag on
Form eln</w>
Dis k
kön nten</w>
de bug</w>
consider ed</w>
bin ationen</w>
aufge fordert</w>
L I
Ear th</w>
y ellow</w>
tab s</w>
sc ore</w>
me chan
macro s</w>
l ang
gelie fert</w>
ge prüft</w>
bit map</w>
be kommt</w>
app ar
provi der</w>
pop -up</w>
berücksichti gt</w>
Win kel</w>
CP U</w>
C hat</w>
om s</w>
ih nen</w>
fäl lt</w>
P I</w>
Makro s</w>
Entfer nen</w>
übersch rieben</w>
installi erten</w>
enthalten en</w>
ar ation</w>
X 11</w>
Mob il
A f
A D</w>
5 -
ver lassen</w>
s ymboli
per im
kompati bel</w>
deposi ted</w>
book s</w>
ar is</w>
S he
Pl us</w>
Eigensch af
D AT
Bewer tung</w>
war um</w>
st e
mo us</w>
dep ends</w>
defaul ts</w>
I E</w>
über mitt
n -
klic ke</w>
gen s</w>
U S</w>
Kon to
Fire works</w>
Digit al</w>
Auto CAD</w>
ver arbeitung</w>
hor se
grund le
ech o</w>
ac ted</w>
Y -
O O
Ma il-
Lin e</w>
B rowse</w>
vari ablen</w>
unter scheiden</w>
festzu legen</w>
en coding</w>
an stelle</w>
am ong</w>
4 5</w>
sch li
h aup
de activated</w>
CUR RE
CS 4</w>
Ar rays</w>
. m
z one</w>
schni tt
prev ent</w>
kom men
horse man</w>
dri tte</w>
Sim ple</w>
Ha ken</w>
F ree</w>
Über setzung</w>
syn c</w>
st ed</w>
en gin
einzu geben</w>
Zus at
Postgre SQL</w>
transpar ency</w>
berech nen</w>
archi ves</w>
Liz enz</w>
Dat ab
200 2</w>
wei ß</w>
sig ned</w>
erweiter te</w>
bit r
Kur z
B ase</w>
1 00
u .
transl ated</w>
chron isation</w>
c -
Si te</w>
J o
y ed</w>
wi zard</w>
sicht lich</w>
sel y</w>
ri mi
pro g
in valid</w>
do t</w>
contri butions</w>
c y
av es</w>
a z
Star ten</w>
St ore</w>
SER V
Bibliothe ken</w>
5 00</w>
yo ut
h ör
contri bution</w>
c ryp
Sch ie
Ne ws</w>
w ach
lö scht</w>
inter est</w>
her gestellt</w>
In forma
Über prüfung</w>
w ahl
ri cht
mov ement</w>
ge ge
f ly</w>
desig ned</w>
c ause</w>
So und</w>
AL T</w>
ra t</w>
pl ann
n es</w>
ell -
d d</w>
b usiness</w>
an melden</w>
Stre am</w>
6 4-
5 9
3 1</w>
ten -
t ing
posi tory</w>
hi p</w>
un ft</w>
gan zen</w>
betra chten</w>
be einf
ar bitr
Sta p
Ma ß
über einstim
vor lagen</w>
s lash</w>
proble m
dies el
Z uf
Z IP</w>
Mat rix</w>
postpon ed</w>
oper ators</w>
high ligh
h ash</w>
aufgeb aut</w>
W W
Unter ordner</w>
Tem plate</w>
Teil neh
Ma p</w>
Exten sion</w>
rec ur
opti mal</w>
b auen</w>
aus ch</w>
Tool bar</w>
Navig ator</w>
Eingab etaste</w>
zu fäl
spra chen</w>
quanti ty</w>
be handelt</w>
al b
Ein heit</w>
up stairs</w>
ro ll
geh end</w>
forma tieren</w>
equ ation</w>
a x</w>
Pre view</w>
P references</w>
H i
H ard
Begin n</w>
Über schriften</w>
ver senden</w>
u es</w>
sel ek
in correct</w>
g allery</w>
Verknüpf ungen</w>
S A
On line</w>
under stand</w>
tran si
interpre tiert</w>
bil den</w>
answer s</w>
Mas chine</w>
Best äti
plat ziert</w>
grund sätz
digit ale</w>
dien en</w>
comm a</w>
Tech ni
S USE</w>
Ob jects</w>
Konver tierung</w>
re main
h men</w>
em on</w>
can c
al ter
F ing
r um
dig its</w>
cap it
ar an
Sel ection</w>
Ord ners</w>
K rei
CO M</w>
255. 255.
utori al</w>
stor es</w>
parti tions</w>
in ge</w>
ch s</w>
alle m</w>
O DBC</w>
M eta
Flash -
u ti
tu red</w>
ti n</w>
ta king</w>
line ar</w>
einfach es</w>
War nung</w>
Typ en</w>
Syn chroni
lö cke</w>
hist ory</w>
Server n</w>
S enden</w>
Laufwer ke</w>
J a</w>
Datum s
- Symbol</w>
äti gt</w>
gespeich erte</w>
c are
S in
S equ
P ages</w>
Mark up</w>
G T
z t</w>
c ar</w>
brie f</w>
C R</w>
um wandeln</w>
op e</w>
lauf enden</w>
err en</w>
durch sucht</w>
bre chen</w>
Num ber</w>
Ani ma
si zes</w>
retri ev
confir mation</w>
ate way</w>
Run time</w>
Pro ject</w>
I s</w>
Dre am
unk no
ra pid</w>
l ungen</w>
icroso ft
cent ral</w>
Herstell er</w>
ru fe</w>
k bar</w>
f elds</w>
erhö ht</w>
Zwisch en
R au
Komm a</w>
z il
wri tes</w>
subsc ri
ignor iert</w>
c md</w>
ang s</w>
am p
IS O
. pdf</w>
zu griff</w>
visi t</w>
un install</w>
st es</w>
selb st
f ach
excep tion</w>
e x</w>
con s
bal ance</w>
Sol aris</w>
Smar t
Open Office</w>
Aus nahme</w>
Ab hängi
steh enden</w>
se i</w>
n ei
A ust
1 8
tr ust
stan ts</w>
st o
sion en</w>
plac ement</w>
j en
identifi er</w>
gän ge</w>
download ing</w>
dest o</w>
der i
break s</w>
as ser
ro te</w>
pop up</w>
modi fi
el en</w>
Z ur
Termin e</w>
Pf ad
Ma ils</w>
x y
fel dern</w>
U E</w>
Softw ar
Qu ellen</w>
G PS</w>
For men</w>
ver tically</w>
ro ten</w>
qu e
pf ul</w>
hel pful</w>
contro ller</w>
cid entally</w>
Sty les</w>
Ele ment
w le
sol ve</w>
manufactur er</w>
el ected</w>
dama ged</w>
Tech nolo
.g if</w>
zuneh men</w>
trä gen</w>
rup al</w>
li t</w>
ge wis
al ong</w>
tz ahl</w>
play ed</w>
inter net</w>
Lo gin</w>
ula tions</w>
twi ce</w>
tr ansp
gre at</w>
du plic
Zeilen umb
Tit le</w>
sur es</w>
k tion</w>
k ateg
inte gration</w>
i p</w>
h yp
frequ ency</w>
en gth</w>
e ma
Zei ger</w>
Deb ug
B ook
unkno wn</w>
stand ards</w>
ob igen</w>
comp iler</w>
beeinf lus
an geschlossen</w>
Authen tifizierung</w>
re ach</w>
fal len</w>
dimension al</w>
dic tionary</w>
bild schir
besteh ende</w>
auszu führen</w>
Klein schreibung</w>
sp read
sch ütz
ori entation</w>
num mern</w>
for ward</w>
anzu passen</w>
V -
Sta ti
I I</w>
Ho t
En vironment</w>
Dat e</w>
Ben achrichti
n ull</w>
evalu ation</w>
Sch reiben</w>
Saf ari</w>
Fol ge</w>
F LA
Ereig nisse</w>
D R</w>
9 7</w>
3 2
signi fic
n etz
manag ed</w>
inter active</w>
dimen sions</w>
XS L</w>
S y
Adress buch</w>
ti gung</w>
si v</w>
schem e</w>
f ensters</w>
eu te</w>
er ledi
con clu
b s</w>
S ho
P AT
Gerä ten</w>
Aus sehen</w>
z ü
wieder um</w>
pri ority</w>
la youts</w>
h ält</w>
gängi g</w>
explic itly</w>
K unden</w>
l d
gehör t</w>
ffer ed</w>
erforder lichen</w>
Sich erung</w>
Programmier sprache</w>
Net z</w>
Lev el</w>
Laut stär
E C
D a
strai ght</w>
r c</w>
icrosoft .com</w>
h ar
ben annt</w>
b lin
St unden</w>
Empf än
1 000</w>
sq l</w>
re fl
pri mary</w>
pas siert</w>
onn a</w>
inter nen</w>
hinter legt</w>
ger ä
f low
el im
c d</w>
bi bliothe
Viel zahl</w>
S il
CURRE NT</w>
virtu elle</w>
sor gt</w>
olo gi
fehler h
el er
block ed</w>
PG P</w>
Des ign
- ID</w>
ver ring
t et
sol chen</w>
n either</w>
le x</w>
forder ungen</w>
enti al</w>
Parti tionen</w>
Iden tifi
G onna</w>
Besch rif
veröffent lichen</w>
tra di
quo tes</w>
integri ert</w>
in klu
ein gabe</w>
bish er</w>
W S</w>
Ra ster
Protokol le</w>
I cons</w>
Ad dres
1 4
spä teren</w>
dist ingu
controll ed</w>
Festplat ten</w>
Datent yp</w>
App s</w>
p d</w>
est s</w>
e mails</w>
deta illi
at ur
Proje kte</w>
Lo g</w>
Inde x
I DE</w>
HT T
Artik els</w>
Ab fragen</w>
über setzt</w>
zugehöri ge</w>
zeich nungen</w>
sel be</w>
möglich keiten</w>
ließ en</w>
fir m
er leich
and o</w>
System e</w>
Recht eck</w>
Fü ll
Bluetoo th</w>
äl tere</w>
promp t</w>
prak tisch</w>
ma ßen</w>
m ung</w>
h y
desc rip
blät tern</w>
Quell code</w>
P res
P at
GI MP</w>
übli chen</w>
w in</w>
ra tive</w>
k enn
Fin d</w>
Drei eck</w>
Dream wea
Do wn</w>
zil la
ta x
sr c</w>
schei det</w>
mo des</w>
d ly</w>
Video -
US B
S eg
Quell text</w>
Artik el
post script</w>
pass enden</w>
pa yment</w>
measure ment</w>
kom m
hoch geladen</w>
auf genommen</w>
Z IP-
UR I</w>
Grupp en
Conver ter</w>
we ek</w>
val ent</w>
stän de</w>
si tuation</w>
quer or</w>
ony mous</w>
key word</w>
ge ometri
de bar</w>
bekann ten</w>
T ur
M ehr
Internet verbindung</w>
In halten</w>
F 5</w>
Über blick</w>
qu i
initi ally</w>
gül tige</w>
Vir tual</w>
SE LE
Haupt menü</w>
GP L</w>
En gine</w>
Be zieh
ne x</w>
ge bo
app o
W 3
M it</w>
2 3</w>
äm lich</w>
separ aten</w>
problem los</w>
p ack</w>
men tioned</w>
m ed</w>
ex po
ein gesch
eh lt</w>
at en
Ver arbeitung</w>
Ti pp
Texte ditor</w>
T S</w>
MI ME</w>
C lick</w>
Beri chte</w>
Ar gument</w>
s einem</w>
o se</w>
hol en</w>
he aders</w>
grundsätz lich</w>
erreich bar</w>
besteh enden</w>
ar gum
Sk ype</w>
P RO
Al s</w>
zur ufen</w>
zuge griffen</w>
w ünsch
vorher igen</w>
ver ti
u al</w>
sh es</w>
read able</w>
n ämlich</w>
independ ently</w>
gh ts</w>
decl ared</w>
br ingt</w>
aus blenden</w>
technolo gy</w>
pf ad</w>
per h
nutz t</w>
inst aller</w>
fest geleg
er fordert</w>
cli ps</w>
be qu
Deut sch</w>
Contain er</w>
zusammen ge
sa ys</w>
photograph s</w>
perh aps</w>
no ted</w>
lic ations</w>
ef fizi
HT TP-
Engli sch</w>
A chtung</w>
spe k
p ut
ang es</w>
ali as</w>
T V</w>
Aktivi erung</w>
placeh older</w>
mitt l
li es</w>
impro ved</w>
conver ts</w>
beschrei ben</w>
b len
0. 0</w>
sc anner</w>
repor ting</w>
op t</w>
obje kt</w>
ill ustrator</w>
formul as</w>
dynam isch</w>
dig it</w>
bestimm tes</w>
adap t</w>
1 7</w>
look s</w>
b ele
ali a</w>
Speich erung</w>
sicher zustellen</w>
sho ts</w>
pub lication</w>
lau tet</w>
er e
de ten</w>
compati bility</w>
be vorzu
achie ve</w>
Qu er
Aus drücke</w>
2 4
rele ased</w>
r at
pro por
hier für</w>
fi ehlt</w>
en den
Arbei tsp
öffent lich
zei len
wär ts</w>
w ünschen</w>
ung ül
tie fe</w>
schem a</w>
numer ical</w>
ma ch
ens wür
c ul
ali ze</w>
Prü f
1. 2</w>
we ar</w>
sent ence</w>
right- hand</w>
recei ves</w>
li g
ein zufügen</w>
ado p
Rol le</w>
Bewe gung</w>
' d</w>
wiederher stellen</w>
ver k
s us
play ing</w>
ma y
int elli
c at</w>
b ash</w>
Schwar z</w>
Punk ten</w>
P i
MA C</w>
F O
EX IF</w>
Datab ase</w>
Comp iler</w>
ver knüpf
Op tions
Fr ank
Abkürz ung</w>
6 -
z win
ro ute</w>
her aus
emp fiehlt</w>
eindeu tig</w>
Medi a
Loc ation</w>
tr ei
gel assen</w>
foc us</w>
exp liz
exam ine</w>
ener gy</w>
al it
Wun sch</w>
Vir en</w>
Tab ul
S A</w>
Proz esse</w>
Ini ti
Downlo ad
Ab sender</w>
ri de</w>
re fer</w>
lic e</w>
ch ten
b rei
a ir
W IN
Kre u
DN S-
App li
mus st</w>
f u
cent re</w>
c aus
ange meldet</w>
M ID
Inte gration</w>
E ther
BI OS</w>
v e-
um zu
per cent
met ri
exis tieren</w>
calcul ate</w>
a verage</w>
Set up</w>
Komp rimi
Hintergrund farbe</w>
s am</w>
l len</w>
gewähl te</w>
c e-
aus geben</w>
an ch
Ver größ
Su n</w>
Mark ierung</w>
Ch an
5. 0</w>
3 0
w anted</w>
vir uses</w>
supp le
st r</w>
physi cal</w>
ob tain</w>
d n</w>
c able</w>
al location</w>
Rück gabe
Komm ando</w>
HTML- Datei</w>
C loud</w>
Bit rate</w>
Ad minist
k unft</w>
impor ting</w>
il det</w>
gre es</w>
emp fangen</w>
einge gebenen</w>
correc ted</w>
ch ter</w>
ausge füllt</w>
aus gelöst</w>
W ahr
Ster n
Rec or
O P
B its</w>
z w
respon se</w>
ong side</w>
gew ö
de grees</w>
ch em
ch at</w>
b je
Ar gum
An sichten</w>
Ad di
zu gän
er stellten</w>
er ci
ent .
amend ment</w>
all s
al ongside</w>
Prä sent
D L
B al
r eich
p ak
numeri c</w>
inhal t</w>
est ing</w>
es cap
automati schen</w>
Wi th</w>
R est</w>
PAT H</w>
B lick</w>
verhin dert</w>
ma sk
m -
f g</w>
er zeug
dre ht</w>
ber eiche</w>
Uni x-
Skrip te</w>
S ign
Ri ght</w>
L and</w>
Kan äle</w>
Ein heiten</w>
su ch
f lash
erhö hen</w>
descri be</w>
benen falls</w>
S til</w>
MP 3
wor ked</w>
inform iert</w>
for get</w>
expliz it</w>
ein träge</w>
c ri
b atter
assig n
Datent ypen</w>
pa ste</w>
i cht</w>
gege benenfalls</w>
Zi p</w>
HT ML
wei sung</w>
ung sprogramm</w>
ser ve</w>
sa gen</w>
ob tained</w>
l änge</w>
deinstal lieren</w>
Bei trag</w>
wiederhol t</w>
genü gt</w>
genau e</w>
b latt</w>
auf hin</w>
Check box</w>
Berechti gungen</w>
. r
t ted</w>
re vi
pac kt</w>
li p
ges t</w>
adap ted</w>
Verschie ben</w>
Sek unde</w>
Deb ian</w>
An dro
2 .</w>
tr ying</w>
plan e</w>
pass wd</w>
nach einander</w>
mit einander</w>
in coming</w>
iden tification</w>
ges etz
frequ ently</w>
d unk
Z äh
Schem a</w>
Mak ro</w>
Algorith mus</w>
Über setz
viel es</w>
trä gt</w>
st ance</w>
publi sh</w>
o s
korre kte</w>
fa x</w>
Zeich nung</w>
Provi der</w>
Medi en</w>
Administr ator
wi k
suc ces
sta b</w>
registri ert</w>
om in
Schri tten</w>
Quad rat</w>
P E</w>
Datei typ</w>
statis tics</w>
so li
n ie</w>
ma p
ir e</w>
h it</w>
M ag
Liz enz
En ter
äl teren</w>
st ens</w>
may be</w>
inklu sive</w>
di gt</w>
de kl
akzep tiert</w>
R aum</w>
Po in
Pix el
P an
I IS</w>
ow ner</w>
metho de</w>
m icrosoft.com</w>
i al</w>
U T</w>
STR G</w>
E cht
Bei träge</w>
vertik al</w>
per form</w>
grafi schen</w>
gin -
fur t</w>
Version s
Them en</w>
Sc anner</w>
Kon queror</w>
F or</w>
Entwick lung</w>
z -
synchroni siert</w>
synchroni sieren</w>
m illi
establi sh</w>
ent packen</w>
ent ations</w>
bu ffer</w>
ab et</w>
Word -
B rie
pass ende</w>
mitt el
inter ess
gesch ickt</w>
Dreamwea ver</w>
vi sual</w>
ur ing</w>
postp one</w>
gn ome</w>
dopp elt</w>
MPE G</w>
Dre h
Cl ass</w>
verklein ern</w>
swit ched</w>
sp ot</w>
re cht</w>
i f
hand ling</w>
en ari
cap able</w>
br ush</w>
bo dies</w>
alph a</w>
T LS</w>
Stati sti
S ammlung</w>
O n</w>
L än
Chan nel</w>
Anmerk ung</w>
comp il
auf lösung</w>
access ing</w>
ac tivity</w>
Ver öffentlich
Op tim
. ...</w>
- Modus</w>
wi er
ver arbeiten</w>
r eichen</w>
la tions</w>
inter ne</w>
for dern</w>
engin es</w>
combin ed</w>
car ry</w>
ab gespeichert</w>
D rupal</w>
y right</w>
remain ing</w>
lab els</w>
la p
gesch windigkeit</w>
con ven
an wen
Hin weise</w>
D ll</w>
Ar ti
wei ght</w>
tri ed</w>
particip ants</w>
le un
k arten</w>
ignor ed</w>
ex es</w>
de activate</w>
ati bili
W ähr
Steu erung</w>
Ereig nis
ver gleichen</w>
ur ation</w>
regi on</w>
Y es</w>
UD P</w>
G rün
A gent</w>
wer fen</w>
temperat ure</w>
t oren</w>
fac ili
ch mod</w>
über wa
rie benen</w>
re si
po st</w>
ho sts</w>
e ten</w>
c lock</w>
br an
St or
Re g
K ern
G alerie</w>
Fo li
5 0
ye ars</w>
wahl weise</w>
v all</w>
prac tical</w>
p en
number ing</w>
mer ken</w>
ma j
lei st
le g
ge füllt</w>
d c
clos ing</w>
an z</w>
acces sible</w>
VB A</w>
Tab s</w>
F ak
C ap
2 8</w>
t ell</w>
sich ere</w>
p ush</w>
implemen tiert</w>
ein geschaltet</w>
Ver s
T el
Si ze</w>
A A
88 59
w ahr</w>
p uts</w>
incre ased</w>
betreff enden</w>
b lich</w>
ausgeb lendet</w>
ar m</w>
Dis k</w>
Bild be
v ec
multi pli
ec ken</w>
T Y
RG B-
Hil fs
- Zeichen</w>
te sts</w>
t in
individu ell</w>
ges per
er stellte</w>
SERV ER</w>
S MS</w>
Frank furt</w>
Browser n</w>
quo tation</w>
no v
hei t
elek tron
ei l</w>
char ts</w>
basi erte</w>
ang aben</w>
XS LT</w>
Val ue</w>
Q U
M illi
we gen</w>
spar en</w>
gra d</w>
geeig net</w>
führ ten</w>
en g
de te</w>
comp are</w>
W ur
SELE CT</w>
R SS
Inst all</w>
F er
De zimal
wor t
vertrau enswür
unterschied lich</w>
st ets</w>
shi p</w>
sha dow</w>
sc an
custom er</w>
correspon ds</w>
biet er</w>
NO T</w>
Herunter laden</w>
Disp lay
4 8</w>
zu laden</w>
z entri
vollstän digen</w>
u tions</w>
te am</w>
sp am</w>
she ets</w>
sec ured</w>
index .php</w>
f act</w>
e der</w>
attitu des</w>
argum ents</w>
Wi zard</w>
Share Point</w>
RA W</w>
Q t</w>
Af ter</w>
trans mitted</w>
sel ects</w>
opport unity</w>
lie genden</w>
kom plex
gu te</w>
gelad ene</w>
ein heit</w>
Um lau
USB -S
S MB</w>
Durch suchen</w>
u b</w>
ro tation</w>
ih m</w>
ex c
en .
e c</w>
do main
administ rative</w>
RT F</w>
Oper ationen</w>
H z</w>
Fr ame
Fe ed</w>
AN D</w>
unter e</w>
teil weise</w>
möglich st</w>
ges pro
Tru e</w>
Sicher ungs
Refer enz</w>
Dis kette</w>
3 2.
zäh lt</w>
wle dge</w>
vol le</w>
rel ation</w>
p ane</w>
h ne</w>
eigen es</w>
aus schließlich</w>
ange ordnet</w>
an ks</w>
a gt</w>
V M</w>
Hard war
-F i</w>
w ör
tele phone</w>
suppli ed</w>
st ar</w>
sim pl
k ungen</w>
Ver änder
News letter</w>
se ek</w>
of fice</w>
lower case</w>
exam ined</w>
distri buted</w>
bildschir m</w>
Wi -Fi</w>
Tem plates</w>
N FS</w>
Im ple
IN G</w>
Con figuration</w>
them e</w>
short cuts</w>
posi tions</w>
op s</w>
gh t
der selben</w>
compar ed</w>
ad verti
P G</w>
Mat eri
Eingabe auf
Bri dge</w>
7 7
0- 9</w>
ö s
wiederher gestellt</w>
wei te</w>
verschlüssel te</w>
stam men</w>
st ör
o ffered</w>
ar en</w>
Tr enn
D auer</w>
tz dem</w>
gh tly</w>
gew oh
ap an
Zusat z
Ab satz
ex perim
eingeb lendet</w>
cor e</w>
befeh l</w>
b atch</w>
aus gabe</w>
Sor tierung</w>
Informa tions
D ev
ver stehen</w>
kno ws</w>
depend ent</w>
alisi eren</w>
Ein richtung</w>
E s
Distri bution</w>
Bo olean</w>
Assi stent</w>
zu zugreifen</w>
t un
mo der
fü ll
appro ach</w>
Um wand
P R
Ma ster</w>
Komp atibili
An n
vie wed</w>
vari ety</w>
tro tzdem</w>
qu ad
nam espace</w>
mail box</w>
enn amen</w>
brau m</w>
ar ri
Bes u
-- --
tific ations</w>
rel o
re ached</w>
on en</w>
Transpar enz</w>
Res our
Qu ar
PDF- Dokument</w>
La yout
Im portieren</w>
Fol ie</w>
D W
C or
B eh
vergröß ert</w>
se en</w>
rout ine</w>
radi us</w>
ein setzen</w>
Prü fung</w>
Pro xy</w>
Leer taste</w>
Ad min</w>
ät tigung</w>
unser er</w>
ro ss</w>
recogni zed</w>
par se</w>
pa ir</w>
mo zilla
horizont ally</w>
gemeins am</w>
ge -
format en</w>
erklär t</w>
W E
Gleich ung</w>
Datei -
Betriebssystem en</w>
Anpass ung</w>
A n</w>
ung spro
si x</w>
ro le</w>
purpo ses</w>
j obs</w>
gra y</w>
frei gegeben</w>
fan gr
ang abe</w>
X X
Wik ipedi
Ni cht-
Kommando zeile</w>
Drop down
- Werkzeug</w>
ö l
ätz e</w>
vari ants</w>
sat zes</w>
re presentation</w>
re boot</w>
kre u
endi ture</w>
electron ic</w>
aus geschaltet</w>
ang les</w>
Smar t</w>
Ret urn</w>
Auto start</w>
u T
sch utz</w>
h at
big ger</w>
LA N-
Hand buch</w>
star t-
scann ed</w>
qu ellen</w>
or -
m ein</w>
ger ät</w>
elim in
c ity</w>
ans ehen</w>
U hr</w>
Remo te</w>
Oper ator</w>
O ver
um fangr
s tick</w>
in it</w>
flexi ble</w>
f li
dep enden
dec s</w>
basi er
Num mern</w>
D eck
Char ac
weiter es</w>
ver gleich
us h
tion ally</w>
ro m
aus drucken</w>
auf tritt</w>
Sk al
Pl us
Papi er</w>
M om
F AT
An nex</w>
whe el</w>
v on
notwen digen</w>
na tive</w>
load s</w>
h ell
einge tra
divi sion</w>
col our
c ue</w>
Schreib weise</w>
Paramet ern</w>
G ri
E in</w>
po wer
pla in</w>
o de</w>
exp enditure</w>
an gibt</w>
Nachri chten
G el
Bin är
. doc</w>
time stamp</w>
struc tures</w>
number ed</w>
emp lo
S m
Origin al</w>
Be stand
AV I</w>
ser ves</w>
propo s
j em
i a</w>
ge währ
a tional</w>
W3 C</w>
Teilneh mer</w>
T X
Mit arbei
Ac tion</w>
2 ,
versch win
sh ut
p x</w>
ig ung</w>
assess ment</w>
S C</w>
M ust
CD- ROM</w>
um gehen</w>
spi elt</w>
li er</w>
k er
gewö hn
ge gebenen</w>
aut om
Wi de</w>
Tele fon</w>
Su ite</w>
L ok
Feat ures</w>
Ein schrän
B log
. mp
wid get</w>
vers a</w>
system e</w>
persön liche</w>
f fi
el ten</w>
tri es</w>
t z</w>
on er</w>
mehr erer</w>
it ing</w>
inf ected</w>
gewünsch t</w>
fa iled</w>
ent al</w>
am mer</w>
System einstellungen</w>
Skrip t
Note pad</w>
Navigations leiste</w>
Medi en
J ahr
Installa tion
Fav ori
ti als</w>
swit ching</w>
mo ves</w>
inter esting</w>
cros s-
bei behalten</w>
acc eler
S ession</w>
Exc el-
Boo t
Aus wirk
2 D</w>
synchroni ze</w>
st eigen
sch aft</w>
p ull</w>
ne wer</w>
mathemati cal</w>
Refer enz
Befeh len</w>
vor liegen</w>
tu s</w>
rie b</w>
mechan is
inser ting</w>
grafi ken</w>
ex peri
bl ank</w>
att emp
al ax
W asser
Proper ty</w>
IP- Adressen</w>
Fehler meldungen</w>
Dynam ic</w>
st ing</w>
mod els</w>
me eting</w>
les bar</w>
cro ss</w>
belie b
allgem eine</w>
Werkzeug leiste</w>
Por ts</w>
I ON</w>
Ein stellungs
B ro
B inde
us e
recipi ents</w>
i zer</w>
bet ro
as ks</w>
R E</w>
Cli p</w>
u b
neue sten</w>
kön nt</w>
con sum
cir cum
c y</w>
b ra
Zuf alls
Tit el
Programmi erung</w>
NU LL</w>
Mon it
Mess age</w>
Hil f
En dung</w>
w ants</w>
techni cal</w>
ri s
no des</w>
man che</w>
lie fern</w>
li ge</w>
korri gieren</w>
her stellen</w>
el te</w>
curr ency</w>
auth or
Wor t
V o
Schie ber
Re chten</w>
H om
wichti gen</w>
sp acing</w>
meas ured</w>
for e
ent a</w>
calc ulations</w>
ap t-
ach e
Fon t</w>
D ec
Bild datei</w>
text ure</w>
sch en
rele van
on ent</w>
kün f
gl er</w>
es -
dekl ari
benöti gte</w>
Rech ners</w>
P lay</w>
IN E</w>
Frei gabe</w>
For um</w>
Eingabeauf forderung</w>
übri gens</w>
vi rus</w>
spe ak
repe ated</w>
per f
ne ben
gra dient</w>
el ect</w>
eingeb au
dokum ent</w>
dar aufhin</w>
Yo u</w>
Ver weis</w>
Ver lauf</w>
Sk ali
RF C</w>
L ab
I t
Ber eichen</w>
ti ps</w>
test ing</w>
sa ver</w>
pa int</w>
option ally</w>
n ally</w>
kontrol lieren</w>
ge änder
erk or
en sures</w>
dis solution</w>
dau erh
bequ em</w>
St ra
Produ kte</w>
Pl an
P alette</w>
Kop ien</w>
IC Q</w>
F enst
3 5</w>
scrip ting</w>
exce e
erweiter ten</w>
en ger</w>
atta ched</w>
ab ber</w>
P ip
K ästchen</w>
E ma
tra gs</w>
tr ennen</w>
sli ghtly</w>
separ ator</w>
li ve</w>
d ance</w>
appo int
ab ili
Li cht
Kur ve</w>
IR C</w>
3 4
updat ing</w>
priv aten</w>
p hr
hin gegen</w>
al located</w>
S H
- ins</w>
wen igen</w>
ma king</w>
differ ences</w>
angebo ten</w>
Tr ack
Mo dem</w>
Klein buchstaben</w>
Farb tiefe</w>
t l
ph ones</w>
kompri mi
index .html</w>
ge klickt</w>
enc ed</w>
eigent lichen</w>
ear lier</w>
di v</w>
be heben</w>
auf zu
Roo t-
Inte ger</w>
s .</w>
reg ard
regard less</w>
le ase</w>
ein s</w>
ali c</w>
Yo uT
Sch utz</w>
Koordin aten
Ein stell
un er
specific ally</w>
ro un
folgen der
do ts</w>
d rei
ass em
ad ministr
Mo v
Instal lieren</w>
FL V</w>
DO M</w>
D N</w>
A ri
ähn liche</w>
x 86</w>
ul er</w>
sa gt</w>
relations hip</w>
men s</w>
log gen</w>
k ali
en coded</w>
eff ective</w>
delet es</w>
bi eren</w>
NT FS</w>
Bit map</w>
sub directory</w>
qu ali
back ups</w>
auf nehmen</w>
an genommen</w>
Schieber eg
Di ffer
C L
s bin</w>
per si
mas s</w>
in o</w>
folgen der</w>
des k</w>
adop ted</w>
Umgeb ungs
Suchmasch inen</w>
Schnitt stellen</w>
Formul ars</w>
FA Q</w>
F AL
vers al</w>
so cket</w>
prec i
no tifications</w>
lei ten</w>
interpre ted</w>
f light</w>
example .com</w>
emp el</w>
eh r</w>
do ing</w>
ati s
St eine</w>
Sp an
Sch ließen</w>
R -
Datei typen</w>
ück e</w>
wo durch</w>
verl ust
tu ri
spezifi sche</w>
scann ing</w>
recogni zes</w>
j ava
ho ok</w>
folgender maßen</w>
ab le
Spezi fi
G E</w>
si bility</w>
priv il
p ass</w>
geord neten</w>
g ern</w>
fi le
en ner</w>
c lo
befeh le</w>
Sp eci
No tes</w>
Hyper links</w>
F ä
F rom</w>
Drop box</w>
umin dest</w>
s mo
s -</w>
rück gängig</w>
bestimm ter</w>
aff ected</w>
Zusammen hang</w>
Zi ehen</w>
Wieder gab
W äh
Umlau te</w>
P M</w>
G o
Ch at
2. 1</w>
z umindest</w>
w and</w>
vo ice</w>
t .</w>
stri chen</w>
natur al</w>
kon figuration</w>
komprim iert</w>
far bi
attitu de</w>
Them es</w>
Text dateien</w>
Rückgabe wert</w>
KD E-
Arbeitsp lat
Ar ch
Appli kation</w>
to ur</w>
sp o
sicher stellen</w>
bl ack
as se</w>
a ster
Text -
T or
Scrip ts</w>
Kan ten</w>
Favori ten</w>
Dialog fenster</w>
ä ten</w>
von einander</w>
sel f-
grün den</w>
er o</w>
dar stellt</w>
betra chtet</w>
b aum</w>
O S
M ach
Em p
D el
A R</w>
th re
ge steuert</w>
ei ste</w>
ed ur</w>
di al</w>
dau ern</w>
WM A</w>
Pix eln</w>
P al
Oper atoren</w>
M erk
M M
Cre ator</w>
Betriebssystem e</w>
to day</w>
sen se</w>
schn elle</w>
redu zieren</w>
out going</w>
min i
korri giert</w>
kehr en</w>
escap e</w>
Zu ordnung</w>
Varian ten</w>
S ym
- based</w>
war en</w>
se k
sch te</w>
prac tice</w>
kom me</w>
k ennt</w>
j us
am ed</w>
ag ing</w>
Up load</w>
Res source</w>
D LL</w>
A UT
ver stän
t end</w>
succes sively</w>
komm uni
kom ma
größ ere</w>
ge o
eingesch rän
al ing</w>
Z -
S ur
R ender
K unden
G o</w>
Compu tern</w>
6 00</w>
tas kbar</w>
so ught</w>
scal ing</w>
repor ted</w>
re geln</w>
main tained</w>
in formed</w>
combin ations</w>
b and</w>
Syn c</w>
C hin
C an
Bu ch</w>
un ser</w>
un pack
um p
th anks</w>
schließ t</w>
ro chen</w>
or ität</w>
min ute</w>
in flu
import ance</w>
gespro chen</w>
fe ed</w>
bro ad
bit rate</w>
administr ators</w>
Suchbe griffe</w>
Pap ier
Open GL</w>
Kon struk
Do main
Diagram me</w>
Buchst abe</w>
y scale</w>
sch lä
lic ense</w>
con cep
br ings</w>
U ID</w>
SW F-Datei</w>
Ra ster</w>
Datei en
An ordnung</w>
10 24</w>
weiter er</w>
test ed</w>
set up
m ale</w>
l an
fin e</w>
fal sche</w>
dür f
Zw eck</w>
Stand ards</w>
K ol
Internet seite</w>
Gn u
EN T</w>
D S
.p ng</w>
tra g
t- in</w>
ore over</w>
maj or</w>
k -
integri erte</w>
inser ts</w>
fil tern</w>
digit alen</w>
develop er</w>
af f</w>
a im</w>
Um ständen</w>
Gr aust
vie wer</w>
star k</w>
schütz en</w>
ex plan
da cht</w>
batter y</w>
Them e</w>
Be enden</w>
App lications</w>
zul assen</w>
t a</w>
sem ic
search ed</w>
rela tively</w>
k i
frü heren</w>
flow s</w>
fac tor</w>
de mon
d or
ad vanced</w>
Spiel e</w>
Inst aller</w>
HTT PS</w>
Gn ome</w>
Eff ects</w>
Des c
ver seh
sätz en</w>
styleshe ets</w>
seg ment</w>
og g</w>
issu es</w>
ig keit</w>
ent ral</w>
den ce</w>
assign ment</w>
FAL SE</w>
Ev ent</w>
Benutzerkon to</w>
An passen</w>
ASCI I-
x ml</w>
wäh le</w>
rec ent</w>
r ender</w>
nach trä
func tional</w>
flo at</w>
et er</w>
bibliothe k</w>
anch or</w>
Umwand lung</w>
TR UE</w>
T ro
Mel dungen</w>
GT K</w>
B ele
tier enden</w>
sch le
ro o
ri ch</w>
rela tional</w>
h ende</w>
fo li
custom ers</w>
at ten
B log</w>
we g
up on</w>
sch e
no tified</w>
in spec
hän ge</w>
ge ben
ber echti
b old</w>
at ch
Posi tionen</w>
DN A</w>
Betriebs systems</w>
Andro id</w>
vor ange
ell ed</w>
confir med</w>
agra m</w>
Wikipedi a</w>
T ar
Publi c</w>
P lease</w>
H E
Fir ma</w>
Di ese</w>
D inge</w>
zu führen</w>
synchroni zed</w>
sp rech
ser v
er wäh
co vered</w>
Suchmasch ine</w>
St ad
Program s</w>
Fr amework</w>
Ar row</w>
Anf angs
An fragen</w>
übli cherweise</w>
zeich en
ursprün gliche</w>
ung st
s atis
no tice</w>
mom ent</w>
m oreover</w>
ic es</w>
glob ale</w>
be zieh
ag re
abbrevi ation</w>
Ser ien
F 1</w>
Anima tionen</w>
xx x</w>
stopp ed</w>
qu alität</w>
om es</w>
in d
gem ein
dra ft</w>
b elegt</w>
Rech nern</w>
C E</w>
2 6</w>
wer t
ung se
su g
sh el
pl exe</w>
p ure</w>
on d</w>
id ance</w>
YouT ube</w>
RSS -
Produ k
Di as
Aus gaben</w>
zi erung</w>
ver änder
up grade</w>
system 32</w>
reg ar
ra d</w>
präsen tiert</w>
prog ress</w>
p hi
integri erten</w>
größ en</w>
g oog
con cept</w>
Vol ume</w>
Nor mal
Hyper text</w>
Gro up
Domän e</w>
Bestäti gung</w>
- Server</w>
verl auf</w>
shar es</w>
nach folgenden</w>
fore ground</w>
eg er
am end</w>
ac cidentally</w>
ab speichern</w>
Rec o
Fil me</w>
Conn ection</w>
Bit te</w>
200 9</w>
vi ert</w>
p .
n en
le gi
inclu sion</w>
in visible</w>
elli p
de par
br ing</w>
any thing</w>
alt ungs
Ver teilung</w>
SD K</w>
S N
Re port</w>
ID S</w>
vorsch au</w>
stati sche</w>
standar di
sicht baren</w>
ser n</w>
s mar
riff t</w>
perman ent</w>
over all</w>
occur red</w>
min us</w>
mer ge</w>
kom plexe</w>
g nis
einfach sten</w>
a g</w>
Zug angs
SS L-
Conn ect</w>
Bal ken</w>
Aus wer
App lik
4 00</w>
verb rei
st ones</w>
sion s
reco gnis
e bene</w>
des how</w>
concer ned</w>
auf zurufen</w>
Ver z
Tim e
Tex ten</w>
Regi on</w>
I de
Far braum</w>
Ex portieren</w>
D up
CO N
äl fte</w>
spezifi schen</w>
rü che</w>
orit es</w>
ge win
fri ends</w>
Zi ffer</w>
Y Y
Unter nehmen</w>
Bild dateien</w>
Addres s</w>
AI R</w>
tivi ties</w>
plug -in</w>
nah me
in ch</w>
gelad enen</w>
dynam ische</w>
ar es</w>
Umsch alt
TI F</w>
F ax
Browser -
Be dürf
4 4
über schreiben</w>
ver ur
s in</w>
re f</w>
r am
meas ure</w>
identi ty</w>
gener ator</w>
facili t
extr acted</w>
diffic ult</w>
b ü
aus lesen</w>
ar ing</w>
Zertifik ate</w>
S ättigung</w>
Protokol l
Inhalts verzeichnis</w>
Desig ner</w>
wri tings</w>
star t
read -
ne ut
menü s</w>
ier ungen</w>
eigent liche</w>
ef ficient</w>
draw ings</w>
dan k</w>
buil t-in</w>
bene fici
Vor name</w>
La youts</w>
Iden tit
Bil der
Be zug</w>
um en</w>
ther ein</w>
synchroni zation</w>
sequ ences</w>
sec re
pro fil</w>
glob als</w>
fest stellen</w>
double- clicking</w>
den noch</w>
dar aus</w>
best ätigt</w>
Pfei le</w>
G rü
zugän glich</w>
ti ger</w>
ta r</w>
styleshe et</w>
pas sieren</w>
it ec
in n
ge teilt</w>
e kte</w>
di ert</w>
daten bank</w>
arith me
ak es</w>
Ya ho
T MP</w>
S can</w>
No v
My SQL-
wür den</w>
ti l
kosten los</w>
i zed</w>
i ter
beschä digt</w>
MS N</w>
Imple men
G eg
B löcke</w>
zu ordnen</w>
um lau
transl ate</w>
to kol
ti ges</w>
sp lit</w>
punk ten</w>
mo unt</w>
im p
ge stellten</w>
er zi
diagon al</w>
code c</w>
besu chen</w>
apt- get</w>
allgem einen</w>
aff en</w>
R ot</w>
Pol yg
Li te</w>
Eigenschaf ten
we ek
un changed</w>
st ack</w>
schn ellen</w>
n one</w>
mei stens</w>
for um</w>
colour s</w>
coll ected</w>
ch ange
be komme</w>
Suchergeb nisse</w>
S CS
R out
Mobil tele
Lo tus</w>
zeich ner</w>
ver fahren</w>
utt ing</w>
titu de</w>
pre ferred</w>
piec e</w>
per s</w>
mer kt</w>
grei ft</w>
g if</w>
g i</w>
fir stly</w>
easi est</w>
depar ture</w>
decl aration</w>
be t</w>
ander n
ac tivities</w>
L C</w>
Ho sts</w>
Groß buchstaben</w>
Datei formate</w>
Cust om</w>
us s
le aves</w>
inter n</w>
h a
ex ec</w>
cle an</w>
bin dung</w>
begrenz t</w>
back end</w>
Recht schreib
Ke ys</w>
In v
Identifi er</w>
Ener gi
ungs weise</w>
them es</w>
semic ol
percent age</w>
li ter
gg ed</w>
g keiten</w>
fam ily</w>
f Ã</w>
cor por
Word Press</w>
W in</w>
Lö sch
For t
E N</w>
x .
trans formation</w>
swit ches</w>
reg ularly</w>
multi media</w>
m icro
loc ations</w>
identifi ziert</w>
ge tting</w>
ersch ein
eindeu tige</w>
arr ange
any where</w>
ach tet</w>
Softwar e-
Quick Time</w>
Fr am
Di alo
B el
ver teilt</w>
sp end</w>
s ungs
r ates</w>
privil eg
pres er
prefer ences</w>
i kol
ey e</w>
de vi
aran te
andern falls</w>
an no
a cht</w>
Verzeichnis sen</w>
Pre mi
HTML- Code</w>
Deta il
Code c</w>
st aff</w>
min d</w>
fl uss</w>
exclu ding</w>
dan eben</w>
c p</w>
b ir
Tei len</w>
Regi stry</w>
MS- DOS</w>
K abel</w>
I F
FA T</w>
Ch ange</w>
An schluss</w>
wh en
s v
re present</w>
om men
modu l</w>
li gen</w>
hexa decimal</w>
ger ing
ek tor</w>
bekann te</w>
au to</w>
Wiederher stellung</w>
Pin sel
B ar</w>
spread sheet</w>
sh or
pres entations</w>
orig in</w>
on e-
k raft</w>
indic ating</w>
hör en</w>
g ar
dire kte</w>
deck t</w>
Sit u
Mom ent</w>
L and
tu i
off set</w>
mozilla .org</w>
le ading</w>
kl ein</w>
horizont ale</w>
gra yscale</w>
edi tieren</w>
c ameras</w>
buil t</w>
ang ed</w>
Typ s</w>
Str g
Fra ge
Bü hne</w>
Ann exes</w>
An ti
3 3
prec ise</w>
gu arante
dien st</w>
ch ild</w>
ali zed</w>
Stand ort</w>
Post ein
Komprimi erung</w>
I T
C ach
Auf bau</w>
200 5</w>
ver lä
sum m
si an</w>
sc ene</w>
ra dio</w>
p t
p lication</w>
mat ching</w>
jo in</w>
host name</w>
disc us
dig ung</w>
c as
block iert</w>
Zusammen fassung</w>
Tr ansp
Pri orität</w>
D D
5 5</w>
. zip</w>
stri che</w>
r ent
plat forms</w>
n b
gesper rt</w>
coun ting</w>
continu ed</w>
beeinflus sen</w>
au schen</w>
at ed
Unter verzeichnis</w>
T C
F alle</w>
Arbeits speicher</w>
Abschni tte</w>
. k
über tragung</w>
un mittel
sub menu</w>
sta y</w>
shi ft</w>
reco very</w>
ni eren</w>
er läu
dauerh aft</w>
comp li
benutzer definierten</w>
ab gespielt</w>
a id</w>
ST E
P ad</w>
Cli ent-
Besu cher</w>
B E
An legen</w>
zu stand</w>
ur o</w>
un abhängi
restric tions</w>
op po
ni pp
fet ch</w>
concep ts</w>
c all
br ennen</w>
anti -
a h</w>
Su per
Sem ikol
Sat z
Namen s
Im port
H ei
Br enn
Betra g</w>
Auf gab
vertik ale</w>
unter scheidet</w>
u li
t mp</w>
si debar</w>
gu idance</w>
exp and</w>
equi valent</w>
det ected</w>
be wirkt</w>
ausge wertet</w>
ad ds</w>
ab gel
Such funktion</w>
Re ad
Passwor d</w>
Pa ste</w>
Oper ation</w>
On ly</w>
Ex p
DT D</w>
C ard</w>
Bildschirm sch
Berech nungen</w>
B lau</w>
B AS
3 6</w>
when ever</w>
ver weist</w>
pro fessional</w>
over write</w>
mod ell</w>
k lassi
foo t
fo ur
expo sure</w>
en viron
diesel be</w>
des ktop
defini tions</w>
comp an
ab legen</w>
Vor aus
Ro bo
M eine</w>
Ausg angs
zi p
star s</w>
schwar z</w>
rech t
nam ely</w>
ht docs</w>
gest alten</w>
fin ds</w>
einge stellten</w>
c oder</w>
c ies</w>
ali zation</w>
akzep tieren</w>
Tit ell
Res ult
Priv acy</w>
Neu es</w>
Mov ie</w>
L ic
F ron
sicht s
si erte</w>
regul ären</w>
not ation</w>
no ch
log ged</w>
in k
em en
anzu legen</w>
al one</w>
Yaho o</w>
Pro t
Multi pli
Lay ers</w>
J apan
Contro ller</w>
CS 3</w>
B re
A T</w>
vie wing</w>
um benennen</w>
so genannte</w>
hand le</w>
f ak
di sch</w>
aus schalten</w>
ar rays</w>
an um
W ür
Proz edur</w>
Medi um</w>
K er
Dokument en
Dev elop
vi s
user- defined</w>
ul ated</w>
restric ted</w>
re viewed</w>
r and
pro fession
kno wledge</w>
k ro
in ar</w>
ide a</w>
h ab
es tig
aster is
accor dance</w>
X .
Tru e
Pop up-
P eri
Dat e
An forderungen</w>
Adress leiste</w>
- Button</w>
ähn lichen</w>
sp an</w>
rot ate</w>
rela tion
man dat
gesam t</w>
ep tion</w>
di t
basi erten</w>
XML- Datei</w>
Tim eline</w>
Sch atten</w>
Kopf -</w>
Kon text</w>
Ctr l-
6. 0</w>
sch altet</w>
p ip
order ed</w>
l and
gener ieren</w>
fin d
cur ves</w>
abge fragt</w>
Z wei
Mo vie
M T
Lin e
H T</w>
trei ber</w>
off en
ni em
it alic</w>
häufig sten</w>
geb ra
del ay</w>
c entr
aufge treten</w>
Wäh len</w>
Tem perat
Sp ace</w>
Platt form</w>
PH P
P SD</w>
H D
Grü n</w>
F am
. php
verschieden er</w>
rec ently</w>
re stor
meri erung</w>
mandat ory</w>
j peg</w>
is n</w>
inten ded</w>
in her
erst es</w>
bet rä
b ün
an ym
W elt</w>
Vari ab
N on
La de
K ör
In put</w>
F al
Basi s
An gebo
3 4</w>
3 .</w>
visi ted</w>
u lieren</w>
per mitted</w>
over written</w>
optim iert</w>
exak t</w>
elec tri
c gi
b rowse</w>
alph anum
adjust ments</w>
Mem ory</w>
Kommando s</w>
FI LE</w>
Analy se</w>
umlau ts</w>
tempor arily</w>
pro c</w>
nap shot</w>
monit oring</w>
mo dern</w>
hyper links</w>
her vorge
gül tigen</w>
for th</w>
for ce</w>
Wahr schein
Sch lag
Pro x
Ob jec
JPE G-
AA C</w>
7. 0.
wir ken</w>
son gs</w>
server 01</w>
sch eint</w>
pres et</w>
p ng</w>
modi fication</w>
met a</w>
kop ie</w>
invi tes</w>
getr enn
extrahi eren</w>
er geben</w>
e kt</w>
dar stellung</w>
ak tionen</w>
Wörter buch</w>
USB-S tick</w>
Schlüssel wort</w>
SS ID</w>
Remo ve</w>
Präsent ationen</w>
Mach ine</w>
Kl assen
Hoch laden</w>
G lob
verur sa
the ore
stro ke</w>
pu b</w>
mal ware</w>
in tui
e ch</w>
delet ing</w>
da ily</w>
beschrän kt</w>
bein halten</w>
an wendung</w>
Zeichen satz</w>
R MB</w>
Mo vi
Form s</w>
Daten quelle</w>
Archi v
übermitt elt</w>
trust ed</w>
spezi ell</w>
sen sor</w>
proz esse</w>
f ör
ell ing</w>
ein binden</w>
d ele
comp ile</w>
c ron
Wi ki</w>
Out look
Lautstär ke</w>
Entwur f</w>
Di es
Benutz ung</w>
ä d
y .
v able</w>
tion -
sel ec
re st
o d</w>
lic y</w>
l angen</w>
ign ore</w>
ge zi
festgeleg ten</w>
f el</w>
diffic ul
aus reich
ac ting</w>
T T
SQ L
S li
Haupt fenster</w>
B latt</w>
Auswahl liste</w>
Aktualisi eren</w>
2 7
än de</w>
um fasst</w>
te u
tak e-
k en
k b</w>
intro duction</w>
gi c</w>
dri tten</w>
den tials</w>
bo at</w>
bec omes</w>
b y-
St amm
Sig nal</w>
Pro cess
Po st</w>
G ateway</w>
An hänge</w>
AL L</w>
trans actions</w>
speci fication</w>
sm b
pol yg
p ly</w>
gr enzen</w>
fizi erte</w>
Such k
M ap
In clu
te x</w>
st elli
sich eren</w>
schn ell
s ors</w>
mom ent
dau er</w>
co unter
Zeichen k
Graph ics</w>
G et</w>
Er setzen</w>
Cal endar</w>
Browser fenster</w>
wirk sam</w>
vor kommt</w>
tt y</w>
skal ieren</w>
po s</w>
durch zuführen</w>
be g
Erk lär
Aust ausch</w>
Arbei ten</w>
Administr atoren</w>
3 60</w>
zwi schen
us age</w>
re d
n on
highligh ted</w>
h im
gan gen</w>
dro pping</w>
bezieh ungsweise</w>
Up dat
Lei stung</w>
Lauf zeit
CS V
3 3</w>
1 9</w>
vorge gebenen</w>
so zi
recei ver</w>
pri se</w>
me t</w>
mar gin</w>
lic k
komp on
inter nally</w>
gewoh nt</w>
doppel te</w>
dire kten</w>
cre ation</w>
construc tor</w>
b lo
W -
Ch apter</w>
Ado be
take- off</w>
tab elle</w>
lin ed</w>
kur siv</w>
it ted</w>
in ver
h u
co de-
b aust
Papi erkor
P hoto</w>
EX T</w>
Datenbank -
über setzen</w>
uni ties</w>
struc tured</w>
rel i
per formed</w>
pain ting</w>
oc curr
mist akes</w>
main ly</w>
l angs
ho ur</w>
grü n</w>
deut lich</w>
desig ner</w>
Zugriffs rechte</w>
Registri erungs
Programmier sprachen</w>
In s</w>
E tik
Befeh ls</w>
App ly</w>
Alterna tive</w>
A- Z</w>
zei ten</w>
y er</w>
u liert</w>
tre ated</w>
ter -
sat uration</w>
resul ting</w>
regel mäßig</w>
disp atch</w>
direc tions</w>
cre dentials</w>
con j
comple tion</w>
com mas</w>
aus gelesen</w>
ap ache
ab gerufen</w>
R D
Out put</w>
K lar
9 -
wat er
trans mit
stat ements</w>
sc ope</w>
r es</w>
pri or</w>
par ent</w>
ins gesamt</w>
betreff ende</w>
besch riebenen</w>
bereit gestellt</w>
b b
au e</w>
asp ect</w>
I t</w>
über nimmt</w>
tre ffen</w>
sch af
on to</w>
of fici
ge zogen</w>
fel des</w>
dau ert</w>
bess ere</w>
be zogen</w>
an nehmen</w>
Unter schie
U -
Schiebereg ler</w>
Plat te</w>
O N
N ull
L MB</w>
Kop f</w>
A li
un des
ge halten</w>
for give</w>
fi tted</w>
con duc
anima tions</w>
Verzeichnis ses</w>
B and
Ari al</w>
3. 1</w>
ön e</w>
ver sendet</w>
text -
st rong</w>
sh ment</w>
pd .conf</w>
par ties</w>
nachträ glich</w>
mon ths</w>
inv estig
gu ide</w>
grafi k</w>
fo o</w>
c are</w>
ag ent</w>
Wieder hol
Vol umes</w>
T ie
St ufe</w>
Sp ac
S po
S I</w>
IP T
Exten ded</w>
CA L</w>
8859 -1</w>
w -
manu elle</w>
init .d</w>
geschlossen en</w>
ffi c</w>
de g
co sts</w>
ch ain</w>
besch reib
auf tau
Resour ce</w>
Re d
Echt zeit</w>
Dateien dung</w>
B ack</w>
Argum ente</w>
unmittel bar</w>
sub tr
sk y</w>
sa id</w>
on nen</w>
i k</w>
gesch ehen</w>
el op</w>
einzel nes</w>
aff ect</w>
ab elle</w>
Mo del</w>
M ath</w>
Lo ck</w>
L as
Formati erungen</w>
Fel des</w>
Er zeug
Cli ps</w>
Auf list
2 6
1. 3</w>
ni sch</w>
li fe</w>
kur zen</w>
haup t</w>
g angs
ff ers</w>
fel d
ergän zt</w>
bet ätigen</w>
Umsch alt</w>
Proz ent
G ül
Besch reib
wier ig
verklein ert</w>
under lying</w>
um benannt</w>
st ufe</w>
sol utions</w>
sch ar
s lash
geord nete</w>
erledi gt</w>
direc tive</w>
app let</w>
ac ross</w>
Min ute</w>
Au to</w>
An grei
.g z</w>
.b mp</w>
war ded</w>
tau scht</w>
t utorial</w>
s RGB</w>
recogni ze</w>
re pository</w>
ord nungs
mar king</w>
mag ne
loss less</w>
inv ested</w>
h its</w>
er fasst</w>
er ase</w>
enlar ge</w>
eingetra genen</w>
dynam ically</w>
detailli erte</w>
contr act</w>
col on</w>
behavi or</w>
antwor tet</w>
Vor einstellung</w>
Trei ber
Mal ware</w>
E s</w>
Bu il
Ab sätze</w>
zulä ssig</w>
wid gets</w>
vor aus
ver gewis
tur ned</w>
sub folder</w>
schri tt
la gen
gen ug</w>
a sts</w>
Umschalt taste</w>
Produ kt
Mod i</w>
Inter vall</w>
Er schein
En coder</w>
Charac ter</w>
trans form
shut down</w>
se chs</w>
on ents</w>
ober halb</w>
ess ert</w>
cer tain
bu ten</w>
S C
zusammenge fasst</w>
vali di
tier ende</w>
simpli fied</w>
schie ben</w>
plat t
hol ding</w>
him self</w>
genau er</w>
einzel ner</w>
da gegen</w>
beding ungen</w>
P C-
P A</w>
Mess enger</w>
7. 0</w>
über haupt</w>
x 2</w>
ra ster</w>
p fe</w>
m einem</w>
gro ß
gen ommen
er es</w>
Zeit leiste</w>
T ER
Sch rä
Rech en
I C</w>
G allery</w>
Di vision</w>
öff n
v eh
stand ing</w>
some where</w>
ck ets</w>
angu lar</w>
Titell eiste</w>
Kon tur
Free BSD</w>
Au f</w>
w all
m ir
inter v
g- and-
f at</w>
ent schlüssel
bo ards</w>
at ory</w>
an tly</w>
Wei ß
F- Dateien</w>
F requ
B eli
00 00</w>
verzeich nisse</w>
ver z
separ ation</w>
s v</w>
render ing</w>
privileg es</w>
p ul
kürz el</w>
kodi ert</w>
form ular</w>
fe eds</w>
en es</w>
deli vered</w>
cop yright</w>
Zeich nungen</w>
Mac ro
Ima ges</w>
ISO -
Gnu PG</w>
F ok
Di re
Ad min
-S teu
veh ic
re production</w>
me et</w>
hö here</w>
hal t</w>
gener ates</w>
es .
certific ates</w>
applic able</w>
anim ated</w>
Wo che</w>
Shi ft-
Prin zip</w>
I M
DO C
D X
zäh len</w>
vergewis sern</w>
unterstütz ten</w>
tt a</w>
tra in</w>
th read</w>
sel ber</w>
parti al</w>
col ored</w>
cir c
adap ter</w>
W LAN</w>
Schrä g
Radi us</w>
Nach name</w>
G est
Ein trägen</w>
C le
Ad d
1. 5</w>
wand elt</w>
struk turi
riteri um</w>
n u
mäß igen</w>
hat te</w>
ergän zen</w>
con sign
c ast
besch reibung</w>
an ten</w>
Wech sel
Stern chen</w>
MPE G
HO ME</w>
v ary</w>
ty po
re placement</w>
produ ces</w>
or a</w>
nb sp</w>
g angs</w>
deri ved</w>
conf lic
book mark</w>
an zahl</w>
activ ely</w>
ab zus
She ets</w>
Modul s</w>
Mitarbei ter</w>
G ut
Automati c</w>
sol ved</w>
refer en
rech ner</w>
noch mals</w>
manip ulation</w>
horizont alen</w>
h ä
ge zeichnet</w>
filter ed</w>
fet t</w>
erschein enden</w>
ent steht</w>
conn ecting</w>
accur ate</w>
V PN
TX T</w>
Standard einstellung</w>
H ier
Gre p</w>
Defau lt</w>
v öl
th -
some one</w>
prot ect</w>
n ä
interpre ter</w>
he ar</w>
h eute</w>
do mains</w>
cre dit</w>
at ur</w>
anym ore</w>
Premi ere</w>
JPE G
Farb ton</w>
Ein führung</w>
visi tors</w>
stitu te</w>
schri tt</w>
redu ziert</w>
position ieren</w>
m ich</w>
itec ture</w>
i z
i sches</w>
ges c
evalu ated</w>
c lock
b row
advan ta
Ter min</w>
S tern</w>
S imple
Recor d</w>
Netzwer ke</w>
Mi kro
Li cht</w>
Contro ls</w>
Bau m
Anpass ungen</w>
2 7</w>
.ht access</w>
.c ss</w>
sub mit</w>
fest zustellen</w>
expor ting</w>
excep tions</w>
every one</w>
du pli
care fully</w>
b on
ant worten</w>
La un
Konfigurations dateien</w>
Grund lage</w>
Fil m
zwei mal</w>
wi es
so genannten</w>
ruc k</w>
ori ented</w>
op acity</w>
my sql
län g
exten sive</w>
ch ent
c atch</w>
bur ning</w>
basi cally</w>
author ised</w>
ann te</w>
Ver besser
Ur spr
Sh ort
Reco very</w>
G im
16 -
är ke</w>
weiter geleitet</w>
unter bro
un necessary</w>
sich erung</w>
s low</w>
fra g
ated ly</w>
arrange ment</w>
alb ums</w>
Voll bild
T O
Stad t</w>
Son ne</w>
Si cht
S ätze</w>
S end</w>
Re gler</w>
Lie fer
F et
Auflist ung</w>
Angrei fer</w>
A N</w>
über schrei
ä ts
ten s</w>
start- up</w>
repe atedly</w>
p en</w>
logi sche</w>
einge gebene</w>
dest ro
da v</w>
asteris k</w>
W h
Sty leshe
Platt formen</w>
Passwor t
Paramet er
P e
Must er
H ash
G it
Col l
Ab sen
10 -
ü blich</w>
reser ved</w>
k s
hö ch
ho t
her auszu
go tta</w>
establi shment</w>
eingebet tet</w>
ein gelesen</w>
al ign
Zu kunft</w>
V O
Remo te
Korre ktur</w>
ID s</w>
F unction</w>
F ri
E cken</w>
C E
Arbeitsplat z</w>
Applik ationen</w>
- Einstellungen</w>
v ar
ul ate</w>
st -
sp erren</w>
sen d
se es</w>
position ed</w>
par ty</w>
oper ate</w>
k it</w>
k ationen</w>
individu elle</w>
eh n</w>
compo unds</w>
Vi si
Veröffentlich ung</w>
Tipp s</w>
Strg -Taste</w>
SE SS
Geb r
Bes itz
Aufgab en
ver hältnis</w>
simpl est</w>
opport unities</w>
lik ely</w>
lic en
l u
group ed</w>
ge dreht</w>
add- ons</w>
Stich wort</w>
Status leiste</w>
Ko dierung</w>
C ore</w>
Ber eichs</w>
Ac cess
- Liste</w>
verb essert</w>
tw o-
tr acks</w>
ti k</w>
sub folders</w>
sam mel
ne sted</w>
lin u
k lasse</w>
größ eren</w>
en ze</w>
d as
an gt</w>
Tab ell
Sz ene</w>
R ele
Programmier er</w>
Person al</w>
M E-
J abber</w>
H im
Grafik karte</w>
Ex port
Es c</w>
D einstal
Administ ration</w>
Add- ons</w>
verschlüssel ten</w>
t esch
subscri be</w>
spi el</w>
sli deshow</w>
sicher gestellt</w>
sh ap
r eiche</w>
mas ks</w>
g am
des elect</w>
concer ns</w>
b lau</w>
asc ading</w>
abgeb rochen</w>
Unter menü</w>
Ta ges
Ta gen</w>
Sk y
Ord nung</w>
Le ben
It ali
Instan zen</w>
Col um
A L</w>
. w
typ ical</w>
slash es</w>
out come</w>
inhal te</w>
in nov
il l</w>
ht ml
ge dacht</w>
er bar</w>
ent lang</w>
Zo om
UT F8</w>
T we
Skali erung</w>
Semikol on</w>
S a
No de</w>
H älfte</w>
Ein -</w>
Bildschirm rand</w>
Allgem einen</w>
ver wei
uner wünsch
ti gt</w>
ti fy</w>
st empel</w>
p g
ol l
leich ter</w>
kompili ert</w>
gemein same</w>
gelie fer
erläu tert</w>
Wei tere</w>
Telefon nummer</w>
ST AR
P as
MD 5</w>
M icro
M X</w>
Fe eds</w>
Ether net</w>
Do c
D u
Bet rieb</w>
B all</w>
verstec kt</w>
un verändert</w>
tra ining</w>
st able</w>
sei tig</w>
pre p
plug -ins</w>
mail ing</w>
irgend wo</w>
desig ns</w>
cat alogue</w>
ber ü
aus füllen</w>
ach tel
ab on
T op
T O</w>
S ession
Pr inter</w>
Macro media</w>
Kom binationen</w>
su n</w>
scre ens</w>
po p</w>
imple ment</w>
ful l
fin ger</w>
f ten</w>
er neu
ber eichs</w>
alphanum eri
a v</w>
Ver k
Sch w
Rech ts</w>
Proble men</w>
Implemen tierung</w>
Erschein ungs
Distri bu
Desig ns</w>
verknüp fen</w>
sp unkt</w>
shar ing</w>
relevan ten</w>
meas ures</w>
im g</w>
gemeins amen</w>
expla ins</w>
einfach ste</w>
eig n</w>
edi tors</w>
distri butions</w>
chec king</w>
capit al</w>
be hand
SESS ION</w>
P age
Lic ense</w>
F O</w>
Desc ription</w>
Defau l
D im
C A</w>
Ab weich
wes entlich</w>
v arch
varch ar</w>
str ength</w>
speci es</w>
read- only</w>
ra hmen</w>
que ue</w>
lauf werk</w>
k ri
gin s</w>
fe ste</w>
f lüs
direc tives</w>
diagram s</w>
det ection</w>
combin e</w>
ack ing</w>
WIN DO
Noti z</w>
Nam ens</w>
Kopf zeile</w>
Kan te</w>
IPv 4</w>
F OR
Entwick lungs
9 6</w>
än der</w>
pd f
men te</w>
ext re
eu ch</w>
dar zustellen</w>
basier end</w>
aus gerichtet</w>
an alog</w>
a sten</w>
System prozesse</w>
Syn chronisation</w>
L ap
Doppel punkt</w>
Col or
Beschrif tung</w>
Aus wählen</w>
wa iting</w>
vorher ige</w>
tre at
rech ts
m eta
incre ases</w>
identifi zieren</w>
high est</w>
gefun denen</w>
fr am
ent packt</w>
bet ten</w>
bec ome</w>
anwen dungen</w>
Wör tern</w>
Stat ement</w>
Sch i
S yst
Erweiter te</w>
Cur rent
unterbro chen</w>
sli des</w>
signat ures</w>
shel ter</w>
schrän ken</w>
k alk
integri eren</w>
h ue</w>
fil ed</w>
di ver
coun tries</w>
compil ation</w>
be ste</w>
a tiven</w>
Wech sel</w>
SV N</w>
Entfer nung</w>
EN D</w>
C .</w>
Archi ve</w>
wör tern</w>
to uch</w>
perio di
oppo site</w>
o gram
nö tigen</w>
mon ey</w>
k de
inst rum
environ ments</w>
arbitr ary</w>
ar ches</w>
al arm</w>
Zeilenumb ruch</w>
L abel</w>
Hintergrund bild</w>
Er de</w>
Cust om
B ul
zahl reiche</w>
vor definierten</w>
tr ash</w>
obje kte</w>
men u
issu ed</w>
herunter zuladen</w>
h eld</w>
ges agt</w>
di agram</w>
descrip tions</w>
b ad</w>
atta ch
Z ell
Wiedergab eli
W el
W H
Vor teile</w>
UR L-
Rech nung</w>
N C</w>
Konstan te</w>
I M</w>
Hand le</w>
Gerä te
Fehl ern</w>
FTP- Server</w>
Ab fra
- Eigenschaft</w>
ürz t</w>
wen ige</w>
vo te</w>
sign als</w>
si sch</w>
ro gram</w>
ren amed</w>
prev ents</w>
ph ase</w>
korre kten</w>
impro v
ignor ieren</w>
hervorge hoben</w>
firm ly</w>
f open</w>
adverti sing</w>
Sicherheits gründen</w>
MID I</w>
Kreu z</w>
Java Script-
Hist ory</w>
FLA C</w>
über all</w>
wh ate
re aders</w>
r on</w>
protokol l</w>
pro pri
mitt el</w>
m k
installi erte</w>
hyper link</w>
glob alen</w>
g-and- drop</w>
er al</w>
ch a
bur n</w>
beträ gt</w>
an gesprochen</w>
ab frage</w>
Unterschie de</w>
Re place</w>
O ut</w>
N ach</w>
N IC
Internet optionen</w>
Hand y</w>
Fing er</w>
Bezieh ung</w>
8 0
3 ,
1 80</w>
x .</w>
v as</w>
tit led</w>
sh op
por table</w>
ol er
mark er</w>
mar ke</w>
korre ktur</w>
initiali zed</w>
et ten
einzu stellen</w>
Post fach</w>
PDF- Dokumente</w>
P reis</w>
M P-
Listen er</w>
Ergebnis sen</w>
Cli ent
B OO
Auf zäh
zu künf
vertik alen</w>
test et</w>
sm all
sin formationen</w>
scro ll
herunter geladene</w>
exp ir
end ruck</w>
di verse</w>
bün dig</w>
be hoben</w>
al ign</w>
ab fragen</w>
W LAN-
Im por
HTML- Seite</w>
Erzeug ung</w>
12 7.0.
0 2</w>
zentri ert</w>
wieder gegeben</w>
whate ver</w>
verring ern</w>
ven tion</w>
th es
tar ge
se u
provi ders</w>
over la
näch stes</w>
list et</w>
langs am</w>
inst all
go al</w>
gi es</w>
dien ste</w>
di e
dependen cies</w>
arr anged</w>
ange klickt</w>
Vers and</w>
TY PE</w>
Fol genden</w>
Bildschirmsch oner</w>
ü cken</w>
require ment</w>
re verse</w>
mod ul
mo tion</w>
lei tzahl</w>
lat ex</w>
komplet ten</w>
intro duced</w>
im possible</w>
i so
h enden</w>
grundle gende</w>
ent lichen</w>
edi table</w>
be arbei
ange fordert</w>
alphabe tisch</w>
Wor te</w>
SY S</w>
Proz ent</w>
Movi ec
Mas ch
M er
K amer
G em
Fü r</w>
Dias how</w>
Di rec
5 4</w>
zi erte</w>
vali dat
ti ver</w>
sor gen</w>
ref f</w>
ra w</w>
om ic</w>
m ol
lauf ende</w>
ein stell
ec ks</w>
dar k</w>
configur ations</w>
an -
War n
Techni k</w>
Tas ks</w>
T ER</w>
P S-
Mob ile</w>
IB M</w>
ER RO
Desktop -
CO M
CI FS</w>
zurück gesetzt</w>
x x</w>
trig ger</w>
stat es</w>
s lo
ris k</w>
re size</w>
r c
p m</w>
fin ding</w>
duplic ate</w>
c ascading</w>
align ment</w>
Test s</w>
Ri ghts</w>
Pri m
N ur</w>
LO CAL</w>
Kl ammer</w>
Gesch ä
Dim en
Attri buten</w>
sur name</w>
schwar zen</w>
sch lagen</w>
requ ests</w>
preci sely</w>
ni tten</w>
mark up</w>
m ein
leg al</w>
initi alisiert</w>
h aving</w>
h ast</w>
geschütz te</w>
fix es</w>
eff ek
dra g-and-drop</w>
cal c</w>
auth ors</w>
apache 2</w>
alph abet</w>
Post Script</w>
Papierkor b</w>
Organ izer</w>
Ku gel</w>
Frage zeichen</w>
Bild größe</w>
tä ten</w>
supp ly</w>
sub directories</w>
schei dung</w>
propri et
kombin iert</w>
invol ve</w>
fam ili
ech an
co u
chec ks</w>
b -
am er</w>
advanta ges</w>
Ver hältnis</w>
S P</w>
MPE G-
LA N
I T</w>
Ener gie</w>
Be grenz
Ar ra
ver mut
tl .</w>
ti gkeit</w>
struc tur
r ely</w>
hi re</w>
h ence</w>
gerä te</w>
ent stehen</w>
W ünschen</w>
Text ur</w>
Por tu
P ra
P E
Nicht- Systemprozesse</w>
Größ en
Bet reff</w>
B rei
Ab spielen</w>
tra gs
ten en</w>
sec tor</w>
rech nen</w>
jem and</w>
for eign</w>
auf ger
a part</w>
Z it
Verw alten</w>
Stru c
Sta ge</w>
Sp am</w>
Ri p</w>
Or der</w>
Lo gin-
Digit alk
DR M</w>
Auf nahme
6 4
wei ßen</w>
verseh entlich</w>
tifizi erungs
thre e-
secre t</w>
s sh
prep are</w>
per c
kop f</w>
influ ence</w>
f än
f rie
de al</w>
besch rif
ausw ahl
anzu wenden</w>
Wor tes</w>
V DR</w>
S G
Qu ick</w>
Non -S
Non-S and</w>
Modi fy</w>
Modi fi
Bild daten</w>
Ak k
7 2</w>
work flow</w>
wei sungen</w>
v oc
sin n</w>
seg ments</w>
s nipp
repres ented</w>
rei ber</w>
re started</w>
hierarch y</w>
gesam mel
fil ling</w>
ev tl.</w>
d ump</w>
bur g</w>
V ali
Tastenkom binationen</w>
Sc roll
R T</w>
Projek ts</w>
Lo go
G host
Fenst ern</w>
F lag</w>
Erei gni
D S</w>
C er
Auswirk ungen</w>
tempor äre</w>
tem p</w>
t -</w>
sei ts</w>
se c</w>
s .php</w>
rea giert</w>
ol ders</w>
m nt</w>
k aufen</w>
ie gel
f ts</w>
es isch</w>
bl auen</w>
WINDO WS</w>
Ver weise</w>
Kompatibili tät</w>
J our
J J
F T
Ab schluss</w>
AB LE</w>
x or
ver glichen</w>
lie gende</w>
filter t</w>
filter ing</w>
fil ms</w>
e ks</w>
brie fly</w>
b and
ST G</w>
Poin t-
No t
Kon t
IPv 6</w>
Exten sions</w>
Ev ent
C hi
3 8
x ml
tä ts
transp ort</w>
so ft</w>
se -
sam ples</w>
retriev ed</w>
position iert</w>
plann ed</w>
ne ar</w>
logi schen</w>
kla r</w>
ide al</w>
gu ides</w>
gre y</w>
enc los
e th
av i</w>
ap t</w>
am a</w>
WW W</w>
Ro man</w>
M echan
M T</w>
Komment ar
Con figure</w>
y tes</w>
trig ger
schli ess
sc ap
ma pp
lei tungen</w>
frei geben</w>
bu y</w>
bel on
bar es</w>
U se</w>
Softw are
Nach teil</w>
I d</w>
Hyper link</w>
Hil fe
Deck kraft</w>
Bl ack
ä r</w>
us -
separ at</w>
interv als</w>
inter medi
hal te</w>
grü nen</w>
ent ing</w>
dynam ischen</w>
deg ree</w>
criteri on</w>
cgi -
belieb iger</w>
bar er</w>
aus sieht</w>
an onymous</w>
Zeichenk etten</w>
Vorder grund</w>
Ver senden</w>
SO AP</w>
Ru by</w>
MP 4</w>
Li ght
F ax</w>
3. 2</w>
zufäl lig</w>
w alk</w>
scro llen</w>
par tly</w>
le ft-
gener ell</w>
f ers</w>
con c
bu ch
b us</w>
ausreich end</w>
angezei gte</w>
Steuer elemente</w>
Sp am
Ser vi
P atch</w>
Min im
L F</w>
G ed
Flä chen</w>
E-Mail- Adressen</w>
C ar
B B
-Steu er
wi shes</w>
vor zunehmen</w>
ver einfa
vereinfa cht</w>
utori als</w>
t x</w>
stati sti
setup .exe</w>
s ys</w>
s wa
mati c</w>
kon to</w>
e vi
c c</w>
Zu weisung</w>
Tro j
To uch
Star Office</w>
Schlüssel wörter</w>
Be stellung</w>
A 2</w>
A .</w>
verl ust</w>
unter teilt</w>
suppor t.
spr ingt</w>
klein ere</w>
inspec tor</w>
ful l-
folgen dem</w>
fal schen</w>
f en
equ ally</w>
enc ies</w>
eb ung</w>
correspon d</w>
ch rome</w>
besch leun
ausge druckt</w>
assi stants</w>
Skrip ts</w>
IS P</w>
D ol
- Ordner</w>
verstän dlich</w>
verbin dungen</w>
verbesser n</w>
semicol on</w>
prepar ation</w>
power ful</w>
nat ure</w>
moun ted</w>
mix ed</w>
materi als</w>
loc ate</w>
lear ning</w>
graph s</w>
g ert</w>
equ als</w>
entfer nten</w>
ab rufen</w>
Wid gets</w>
Vollbild modus</w>
Text ver
SE T</w>
S elek
L u
Inter national</w>
C ho
Buchst ab
B as
Al ben</w>
und ation</w>
un ge
tokol l</w>
t ec
stre ams</w>
sh ut</w>
pur ch
poten tial</w>
pop ular</w>
pa ti
on e
nütz liche</w>
no tieren</w>
m es
ill ust
config .php</w>
concer ning</w>
co unter</w>
Vor gaben</w>
Gim p</w>
übereinstim men</w>
y y
ver weisen</w>
st ages</w>
squ ares</w>
ob ach
lin ien
it u
it ely</w>
geschütz ten</w>
der -
comm only</w>
bul let</w>
amm a</w>
Wei ß</w>
Tre ffer</w>
Text felder</w>
Symbol en</w>
Moviec li
Mini atur
Man ual</w>
Br ennen</w>
Anwendungs daten</w>
An bieter</w>
7 5</w>
12 3</w>
y te</w>
u ble</w>
time -
restor ation</w>
r tf</w>
r anges</w>
certain ly</w>
big es</w>
ben ach
Sch wierig
Identit ät</w>
E ig
5 6</w>
127.0. 0.1</w>
zus ehen</w>
wa v</w>
to s</w>
sec tors</w>
s age</w>
php info</w>
parti ally</w>
ori enti
no te
lo sen</w>
impro ve</w>
graph y</w>
g z</w>
expla in</w>
en su
display ing</w>
dis c</w>
debug ging</w>
communic ate</w>
begin n
Unter neh
Uhr zei
Pan or
P ause</w>
Geg ner</w>
F oo
F 4</w>
7 6
4 2</w>
32- bit</w>
wra pper</w>
wi ld
w ell-
völ lig</w>
v ey</w>
stitu tion</w>
stat tet</w>
scan nen</w>
right- clicking</w>
ni cht-
nam e.
n d</w>
li sten
fri end
f ts
et -
er fassen</w>
c la
bran ch</w>
Vi rus</w>
U PD
Objek tes</w>
Nor mal</w>
Mitgli eder</w>
Hand ler</w>
G A</w>
Ei gene</w>
Archi vi
Alph a</w>
. o
zz le</w>
web dav</w>
r m</w>
o dd</w>
neben einander</w>
ke pt</w>
jen igen</w>
gesch lagen</w>
encryp t</w>
ein er
doc x</w>
co s</w>
arbeit ungsprogramm</w>
ab spielen</w>
ab schließ
ZIP- Datei</w>
R W</w>
Kop ier
G i
Ex ter
Ein e</w>
Distribu tionen</w>
2. 2</w>
zi erten</w>
wi ll
str ate</w>
placeh olders</w>
na tion
mu ster</w>
m ü
l ess
j ected</w>
inter es
fre e
fic ations</w>
di eren</w>
con fi
Win Zip</w>
Syst ema
Remo te-
F ã</w>
Auswer tung</w>
5 6
resol ved</w>
re par
offici al</w>
ment al</w>
limit s</w>
herauszu finden</w>
gegen über</w>
gebr au
g ste</w>
emen tioned</w>
ed back</w>
eck igen</w>
eb ar</w>
distingu ish</w>
def ective</w>
Wo chent
Text baust
Stor age</w>
Pa int</w>
LE S</w>
Konstan ten</w>
Ko sten</w>
I s
He ader
ERRO R</w>
Back end</w>
1. 4</w>
zi em
skal iert</w>
s hr
p l</w>
moment an</w>
mark et</w>
inter aktive</w>
i so-
grei f
fa il
T R</w>
Pack age</w>
No w</w>
Lo ader</w>
Ge o
DO S-
DE LE
B usiness</w>
- Tag</w>
ver an
ursprün glich</w>
sp ell</w>
small est</w>
sei tige</w>
rie bene</w>
organ ize</w>
le gung</w>
elem enten</w>
cons ult</w>
ci al</w>
ch ance</w>
be folgen</w>
arbitr arily</w>
analy siert</w>
an te</w>
Interpre ter</w>
Ge wi
Arti cles</w>
Ad apter</w>
w alls</w>
verwen de</w>
ung er
ta gged</w>
re al
p an
m ali
lap top</w>
it ze</w>
erleich tern</w>
abgeb ildet</w>
Zur ück</w>
Zur ück
Wasser zeichen</w>
Ver lauf
V LC</w>
Sequ enz</w>
Prüf sum
G ehe</w>
C lose</w>
Aus druck
Auf trag</w>
Addi tion</w>
1 50</w>
. h</w>
ye ah</w>
vor gesehen</w>
visi bility</w>
ung sprogram
server -
ser ved</w>
s ache</w>
platt form
k ö
j u
er ing</w>
em er
disp at
das selbe</w>
aufge führten</w>
X Path</w>
Symbol leisten</w>
Prox y-
Port foli
N ä
Kon zep
Hom e-
Goog le-
En d</w>
Ch ro
Besitz er</w>
zu frie
ziem lich</w>
w av
validi ty</w>
un de
ten den</w>
schri tten</w>
p k
or y-
multi plication</w>
hyper text</w>
fre und
fin ish</w>
enti rely</w>
di ffer</w>
design ation</w>
consi stent</w>
canc el</w>
abili ties</w>
Temperat ur</w>
Technolo gie</w>
Tabellen kalk
T wit
Spezifi kation</w>
Play ers</w>
O ther</w>
Lin ien
Kur ven</w>
J ah
Graph en</w>
1 2.
zeich nungs
ver suche</w>
tra gungs
steh ende</w>
spe ech</w>
sor ti
ro p
r au
per mission</w>
p unc
news letter</w>
enari o</w>
ausführ bare</w>
at ure</w>
ac qu
Web si
W oh
W PA
Text verarbeitung</w>
Pic as
P rei
Menü punkte</w>
H all
Fon ts</w>
D 1
Cur sor
Cl ass
Ab st
AS P</w>
tim eline</w>
res h</w>
re ge
pre processor</w>
num mer
it ed</w>
inter action</w>
exclu sively</w>
ef fici
cht ungs
ch ar</w>
bedien ung</w>
Uhrzei ger
T on</w>
Sor tier
SCS I</w>
Lo ad
Li ve
Geb ur
Empfän gers</w>
Auf nahmen</w>
Adress zeile</w>
- Element</w>
wor fen</w>
ul ator</w>
treat ment</w>
t es
stor ing</w>
rec eption</w>
lat ter</w>
inst ances</w>
in box</w>
gi en</w>
ge tro
distingu i
arti st</w>
addres sed</w>
Zi ffer
Ta st
Sin n</w>
QU E
Par ameters</w>
Ma ster
Li ter
Fok us</w>
Bes tim
B ra
Aut oren</w>
vor über
vor liegt</w>
uns eren</w>
ul dn</w>
time out</w>
th y</w>
t al
sch alt
po ol</w>
plann ing</w>
ol es
mittl ere</w>
mean ing
loc ale</w>
le ep</w>
l ac
hand ler</w>
ge testet</w>
erzi elen</w>
eindeu tigen</w>
eig net</w>
cgi- bin</w>
bess eren</w>
adres sen</w>
a gen
Wir eless</w>
Tex tra
St ate</w>
SN MP</w>
R unde</w>
Postein gang</w>
P LA
M es
Lo cal
Eig ent
Daten übertragung</w>
Cre ative</w>
Co de-
5 9</w>
2 8
zus etzen</w>
verschlüssel n</w>
ver folgen</w>
kt oren</w>
k o</w>
h om
flüs si
f är
di alog
deklari ert</w>
conver ting</w>
adjust able</w>
accur acy</w>
Uhrzeiger sinn</w>
System start</w>
St unde</w>
Sor tieren</w>
Kom pression</w>
D1 rogram</w>
Cont in
vor ne</w>
techni que</w>
so bje
ra gen</w>
on s.
no ise</w>
ma z
gängi gen</w>
gen des</w>
fä hrt</w>
cor ners</w>
con stants</w>
ange hängt</w>
analy se</w>
Wid th</w>
Sp r
Sky Drive</w>
Sicherheits einstellungen</w>
S to
Organ isation</w>
Lö sungen</w>
Konver tieren</w>
K ö
I tem</w>
G ar
File Maker</w>
Festplat ten
Enter prise</w>
Comm on</w>
C L</w>
C GI
Bet a</w>
Ab lauf</w>
ver halten</w>
ta tions</w>
si tu
respon sible</w>
pa irs</w>
ir able</w>
i scher</w>
g a
assi stance</w>
a de
Zu g</w>
Voraus setzung</w>
Set ting
Se par
S ing
O ne</w>
Num merierung</w>
K nö
I L</w>
Formati erungs
Er r
DB 2</w>
200 4</w>
w ater</w>
versch ickt</w>
se arches</w>
screen shot</w>
re ver
pro bieren</w>
ordnungs gemäß</w>
optim ised</w>
om itted</w>
metho den</w>
kombin ieren</w>
k b
gu y</w>
druck er</w>
cho ices</w>
ari se</w>
Te am
St rom
Ma th
Inter change</w>
Hall o</w>
H ow</w>
Erk ennung</w>
Dokument es</w>
D IS
Abhängi gkeiten</w>
4. 1</w>
2 F
zer stör
transi tion</w>
ta pe</w>
stim mt</w>
st ron
soli d</w>
omet ry</w>
mean ing</w>
ma ß
kon nten</w>
kommuni zieren</w>
ie t</w>
fac ility</w>
da emon</w>
conj unction</w>
belie biges</w>
auth oriz
aufger uf
ali en</w>
VPN -
Tel net</w>
Standard einstellungen</w>
So unds</w>
NIC HT</w>
Modul en</w>
Mag enta</w>
M ir
H äu
H ide</w>
Größ en</w>
Ex per
An forderung</w>
Aktivi eren</w>
ul tim
si tät</w>
schlä gt</w>
prob ability</w>
off enen</w>
ob vi
numeri schen</w>
instal lations</w>
in fizierte</w>
g over
Rechtschreib prüfung</w>
R us
Plug -in</w>
MP 3-
M app
F 9</w>
D ER</w>
0 5</w>
trigger ed</w>
tho ught</w>
si tion</w>
revi sed</w>
i Pad</w>
h l</w>
g keits
cr ash</w>
comm erci
b richt</w>
ag g
Zeit stempel</w>
T he
Stap el</w>
SY STE
Re zep
R oh
Konstruk tor</w>
Kon fli
Eingabe felder</w>
Di ag
A 4</w>
7 0</w>
vol len</w>
verschie bt</w>
v el</w>
sym metri
sam t</w>
ri der</w>
rech net</w>
log arith
htt pd.conf</w>
function ing</w>
ein blenden</w>
continu ous</w>
bul lets</w>
auf ruf</w>
Zei tz
Wiederher stellen</w>
UN D</w>
Tim es</w>
St and</w>
Par t
Kat alog</w>
ID 3</w>
G an
F lex</w>
Auto -
Attri but
A S</w>
9 x</w>
4 8
simil arly</w>
schwar ze</w>
recognis ed</w>
ordin ary</w>
lä ßt</w>
initiali zation</w>
her zustellen</w>
excee ding</w>
en ch</w>
du le</w>
comp re
af te</w>
Vor bis</w>
Proz e
K i
Foli en</w>
Fil tern</w>
Abhängi gkeit</w>
. sh</w>
zentr alen</w>
un k</w>
res e
pl ant</w>
op tical</w>
il ie</w>
gh af
gewöhn lich</w>
f lag</w>
design ated</w>
den selben</w>
cle an
air port</w>
St ück</w>
Richt linien</w>
Posi tion
P T</w>
Inhal ts</w>
Fo undation</w>
Fal se</w>
Edi tors</w>
Da emon</w>
C anc
über sicht</w>
ös se</w>
vec tors</w>
vari ieren</w>
uni form</w>
tran et</w>
sus p
registri eren</w>
re präsentiert</w>
quo te</w>
propor tional</w>
po licy</w>
nei gh
neg ativ</w>
kompili eren</w>
h nen</w>
gra du
fer tige</w>
erleich tert</w>
er ster</w>
einge stellte</w>
clock wise</w>
and box</w>
anc y</w>
Zugangs daten</w>
Wahrschein lichkeit</w>
Mit tel</w>
Mat ri
LE D</w>
K eine</w>
Contro l
C as
B aum</w>
As sem
Alt- Taste</w>
son sti
par ser</w>
n ine</w>
mar ken</w>
man chen</w>
lock ed</w>
i cher
foo ter</w>
char ge</w>
ch e
add ons.
ad v
Ver wenden</w>
Netzwerk -
Maxim um</w>
Li bre
F ull</w>
Design -
C V
B atch
255.255. 255.
vermut lich</w>
un e</w>
th e-
refer red</w>
min imal</w>
mechanis m</w>
m alen</w>
low est</w>
il d
gelö schte</w>
erh eb
de pic
att ack</w>
allow ances</w>
ab or
Währ ung</w>
Vor gabe</w>
Sti le</w>
Spac ebar</w>
Multipli kation</w>
CR M</w>
B utt
A maz
überwa cht</w>
ä ume</w>
wh ere
upp er
un be
there by</w>
signific antly</w>
se ven</w>
s d</w>
p y
organ isation</w>
of fic
interess ant</w>
ges icher
gen auen</w>
four th</w>
con stan
c ali
bü cher</w>
brow sing</w>
boo t
auß en</w>
app le.com</w>
ang ing</w>
alphabe tically</w>
allgem ein</w>
W eich
Ver such</w>
Unter titel</w>
Trenn zeichen</w>
S tim
N ul
IPT C</w>
Fr ench</w>
Druck auf
C md
Ab ta
Über wach
x is</w>
typ ically</w>
ti les</w>
t ts</w>
syn chronisation</w>
su b</w>
sp ruch</w>
sel em
schie den</w>
s au
ri chtet</w>
r .</w>
pro per</w>
mark ings</w>
kla ppt</w>
k rei
g a</w>
f all
ent en
c entered</w>
addi tionally</w>
Vir tu
Uni versal</w>
Stap el
Spiel feld</w>
Grün den</w>
Fir st</w>
Erscheinungs bild</w>
Ein fü
Dre hen</w>
An lage</w>
z el</w>
relo ad</w>
play s</w>
fe sten</w>
f stab</w>
experi ence</w>
erzeug ten</w>
di stor
dem selben</w>
d om
caus es</w>
az ität</w>
at us</w>
al ed</w>
R an
O T</w>
MA X</w>
Jahr e</w>
El lip
Differ enz</w>
Bo x
Befeh l
vor definierte</w>
son g</w>
ser vi
qu ar
ol l</w>
mehr fach</w>
mat ches</w>
lä ge</w>
lo ader</w>
ges eh
ger ech
exp lo
ent yp</w>
eingeschrän kt</w>
compre hen
broad cast</w>
bet rifft</w>
autom ated</w>
ag ree</w>
Versions nummer</w>
Ster ne</w>
Standard wert</w>
Signat uren</w>
Set up
Refer enzen</w>
R en
Pic ture</w>
Or te</w>
Microso ft-
Mark ierungen</w>
I m</w>
Gen au
Ema il-
C K</w>
5 ,
unpack ed</w>
un pack</w>
t st
poten ti
por ting</w>
obje kt
müs ste</w>
monit ors</w>
k ar
intermedi ate</w>
im pli
geöff nete</w>
ess ential</w>
erh ält
enti ally</w>
ent schieden</w>
dokum ente</w>
custom ize</w>
c ach
auf weisen</w>
Ya ST</w>
V ER
Um benennen</w>
Styleshe et</w>
Res et</w>
R and
Pro mp
MA CH
M ein
Leben s
Hardwar e-
Gu ard</w>
Fuß zeile</w>
F ed
Bi blio
Bedien ung</w>
Anwen d
ti tion</w>
ti erungs
th in</w>
targe ted</w>
pro jec
mittl eren</w>
ment ary</w>
ma p-
kla pp
h ard
goog le.com</w>
gebra cht</w>
g ab</w>
fun dam
fa x
dem o</w>
de cre
compres s</w>
bo ats</w>
ass umes</w>
W Y
Text -</w>
Picas a</w>
O S-
Multi medi
J a
In t
G lie
G eh
Formular en</w>
Einschrän kungen</w>
Eff ek
C amera</w>
C RE
Bestand teil</w>
.d at</w>
y m</w>
u e
tri ck</w>
ti f</w>
symboli c</w>
sk ip</w>
si tting</w>
pub lic
phr ases</w>
p n
meaning ful</w>
lö st</w>
indi ces</w>
hö heren</w>
hö he</w>
high light</w>
ext end</w>
constan tly</w>
ap ache</w>
Vi de
O CR</w>
MACH INE</w>
Kre dit
Fi eld</w>
De kl
D ic
Con fig
w ahl</w>
vehic le</w>
under score</w>
under lined</w>
sek unden</w>
ho use</w>
fil en
fehl ende</w>
do ck</w>
dis k
difficul ty</w>
brau ch
b len</w>
art work</w>
addons. mozilla.org</w>
UPD ATE</w>
Str g-
Mess age
M ein</w>
K ameras</w>
In Copy</w>
Er fol
Aus nahmen</w>
w p</w>
ut h</w>
un sichtbar</w>
um ps</w>
stri ch
sorti um</w>
si l
sequ ently</w>
re in
occ up
mark ierte</w>
m b
j our
intelli gen
erci se</w>
ein heiten</w>
cir cles</w>
b is
ausführ liche</w>
appoint ment</w>
anz ö
analy sed</w>
Zo omen</w>
Ziffer n
W PA</w>
Vorsch auf
Nov ell</w>
L IN
Ide e</w>
Gr am
Gebr auch</w>
Datei manager</w>
C ro
AN SI</w>
är fe</w>
verschwin det</w>
ver lieren</w>
v ation</w>
ti le</w>
sub mission</w>
steigen d</w>
sp alte</w>
s n
remo ves</w>
remo val</w>
piec es</w>
pas sp
p al
neu ere</w>
mo bil
kateg orien</w>
iso- 8859-1</w>
imp act</w>
i ded</w>
gesch nitten</w>
ex ercise</w>
ein sehen</w>
dar y</w>
asc ending</w>
Zeich nen</w>
UT C</w>
U M
Re pository</w>
Programm start</w>
Post Script-
Po lic
N ok
L at
F ROM</w>
Exc el
Erklär ung</w>
B logs</w>
. EXE</w>
äch lich</w>
Über einstim
www. microsoft.com</w>
vorüber gehend</w>
vor berei
ungül tig</w>
system -
scal ed</w>
recogni tion</w>
per l</w>
par amet
origin ally</w>
of fizi
ma pping</w>
m c</w>
list ing</w>
inter pol
in puts</w>
in du
hexa de
happ en
gl .</w>
ge stellte</w>
füg ten</w>
exce ed</w>
ear ly</w>
dr in
den den</w>
conver ter</w>
c am
c ached</w>
aufge teilt</w>
ann ten</w>
a gen</w>
X -</w>
Video dateien</w>
So cket</w>
S ender</w>
Post aus
P ok
L D</w>
Jah res
FL V
Datei -</w>
Bit map
Bild -
Befehls zeile</w>
zul esen</w>
w ave</w>
v i</w>
th ek
ten ance</w>
tempor ären</w>
stru kturen</w>
respec tively</w>
punc tuation</w>
position ing</w>
perio ds</w>
main tenance</w>
ho le</w>
f ad</w>
exp and
en code</w>
ei t
ec on
deut schen</w>
ang ele
ad es</w>
Sch ul
Refer ence</w>
Ra w</w>
O G
Netzwerk karte</w>
Mobiltele fon</w>
Meta -
Logo s</w>
Inv ent
Ge win
Edi tor
DB MS</w>
Cal c</w>
4 1</w>
verfüg bare</w>
unter einander</w>
ti ller</w>
t one</w>
st ei
spec tive</w>
sicht bare</w>
set ting
propos als</w>
p atch</w>
ordin ate</w>
lin ker</w>
lei tet</w>
il ls</w>
i ds</w>
fer tigen</w>
end ungen</w>
eb t</w>
d ation</w>
asp x</w>
a warded</w>
Trans aktion</w>
To p</w>
L ern
Gra ph</w>
DI R</w>
Canc el</w>
B CC</w>
Auto Text</w>
Anti -
9 6
n ings</w>
lon g
kom fort
k B</w>
inten sity</w>
g zip</w>
en ded</w>
de .
classi fied</w>
c am</w>
beschrän ken</w>
an fang</w>
Wor ten</w>
U m</w>
Termin al
Post leitzahl</w>
N ot</w>
Dar stellungs
DX F</w>
5 5
über la
y po
wat ches</w>
vol ler</w>
sei ten
search ing</w>
por tal</w>
p c
numeri sche</w>
komp li
kateg orie</w>
ig es</w>
gezi elt</w>
e zu</w>
box en</w>
ben den</w>
ass ume</w>
Wri te</w>
Speich erkarte</w>
STAR T</w>
Mail server</w>
Con sole</w>
C i
Binde strich</w>
Arbeits fläche</w>
AP I-
64- bit</w>
zwin gend</w>
zwei er</w>
tra ffic</w>
play list</w>
p tion</w>
lau t</w>
fav orites</w>
calcul ating</w>
ausge tauscht</w>
al ig
X .</w>
User name</w>
Tri ck</w>
Suchk riterien</w>
O SD</w>
O LE</w>
Mitgli ed</w>
Lo ad</w>
La tin</w>
Korre kturen</w>
I D-
Genau igkeit</w>
Fil ters</w>
Ex ec
DELE TE</w>
. t
- Manager</w>
verstec kte</w>
upper case</w>
tr um</w>
ti ff</w>
th ly</w>
swa p</w>
suf fix</w>
sch wer</w>
s ation</w>
re ply</w>
pl ing</w>
o .
norm aler</w>
lä ufe</w>
kno ten</w>
k Hz</w>
ir respective</w>
interrup ted</w>
intelli gent</w>
grundle genden</w>
con sequently</w>
benefici ary</w>
att acker</w>
ass um
ab gleich</w>
ab c</w>
WH ER
Tast endruck</w>
Tabul ator
Sicher heit
RA R</w>
No te</w>
L D
Japan ese</w>
GP S-
Druck ers</w>
Audio dateien</w>
u sion</w>
teil ungen</w>
part ment</w>
p ing</w>
optim ieren</w>
n um</w>
m einer</w>
ligh ting</w>
hr ase</w>
hi on</w>
einge führt</w>
bes ide</w>
ash board</w>
ab weich
Um gang</w>
TA B</w>
So li
S ie
Rück seite</w>
Plus zeichen</w>
Libre Office</w>
IB AN</w>
I II</w>
Fern bedienung</w>
C all</w>
B atter
B S</w>
A bo
4. x</w>
x -</w>
tradi tional</w>
tool bars</w>
sub titles</w>
spek tor</w>
si tz
re write</w>
off ene</w>
komplex en</w>
klic ks</w>
go tten</w>
ghaf en</w>
ge gebene</w>
g oo
em ber</w>
eh er</w>
configur able</w>
b au
aufge zeichnet</w>
ac ent</w>
Skrip ten</w>
Ser i
Ein richten</w>
.ht ml
än e</w>
verring ert</w>
un do</w>
um fang</w>
trans form</w>
send mail</w>
niem als</w>
nah ezu</w>
k ür
haup ts
gesu chten</w>
enti ty</w>
em bed</w>
a y
a il
Verz ö
Ur sache</w>
Str ing
S tick</w>
RE QUE
Promp t</w>
MA C-
Kö ni
J an
Indi zes</w>
wh om</w>
war tet</w>
vertr aut</w>
sig ne
k ts</w>
high ly</w>
fehlerh aft</w>
et er
es sions</w>
en -</w>
be zü
as yn
W ie</w>
Veränder ung</w>
Verschlüssel ungs
Situ ation</w>
Län gen
La st</w>
Konfigur ationen</w>
H eight</w>
Edi tion</w>
E-Mail- Programm</w>
CS 5</w>
Brie f
Anmel de
200 6</w>
. log</w>
- Verzeichnis</w>
suc cess</w>
ro ke</w>
r ie</w>
prefer ably</w>
plac ing</w>
man der</w>
hi gkeit</w>
gerech net</w>
gel es
erwäh nt</w>
er tem</w>
dev elop</w>
attemp t</w>
absol uten</w>
Hist ogram
Gra phi
Fre unde</w>
Dro p-
2 9</w>
.c fg</w>
tesch lange</w>
rei henfolge</w>
physi kali
perf ect</w>
mess ungen</w>
kosten lose</w>
inv ent
in form</w>
high -
hier mit</w>
expir y</w>
e ve</w>
b ruch</w>
ac counting</w>
Vekt oren</w>
St ärke</w>
REQUE ST</w>
Mak e
IN I</w>
Desktop s</w>
B 1</w>
Audio -</w>
Anmerk ungen</w>
AP Is</w>
überwa chen</w>
un denen</w>
s ales</w>
recei ving</w>
programm ed</w>
over ride</w>
off en</w>
net z</w>
met er</w>
j ection</w>
expres sed</w>
erk enn
durch laufen</w>
dec ryp
commerci al</w>
bene fits</w>
an st
Video datei</w>
Seiten leiste</w>
Schräg strich</w>
Prim är
Knö pfe</w>
Glie der
Gerä ts</w>
Gem ein
E ck
20 12</w>
- f</w>
u. a.</w>
ni ght</w>
mon o
manag ing</w>
li cht
kan al</w>
inser tion</w>
ho he</w>
hell o</w>
gesicher ten</w>
fi ziert</w>
farbi ge</w>
einge hende</w>
di r
ban ner</w>
T utorial</w>
St ation</w>
Nä he</w>
Ma in</w>
J ob</w>
I tem
H orizon
Fed ora</w>
Deta il</w>
4. 3</w>
.x ls</w>
versch icken</w>
ver teilung</w>
sta sten</w>
propo sed</w>
plan et</w>
par all
over ri
invi ted</w>
for gotten</w>
ff enen</w>
di alo
beginn end</w>
W OR
Quell datei</w>
PL Z</w>
M ore</w>
M is
L oo
K ün
DNS- Server</w>
Ausg ang
Arbei t
An ker
visi tor</w>
tax es</w>
spra chi
rec ord
qu es</w>
programm iert</w>
prec e
o gram</w>
maxim alen</w>
k ap
geeig neten</w>
ge zählt</w>
fin de</w>
facilit ate</w>
en titled</w>
co decs</w>
char set</w>
b or
ausge fÃ</w>
aus führt</w>
as per
appar atus</w>
U ti
T ree</w>
System -
Qu alit
Photo shop
M and
Korre ktur
Kenn ung</w>
J DBC</w>
Hier arch
H P-
GP G</w>
Ein fluss</w>
Coll ection</w>
Co decs</w>
5. 1</w>
öffn enden</w>
zuge ord
z ehn</w>
wi der
werkzeu ge</w>
to ken</w>
pat ter
n ennt</w>
kontrol liert</w>
integr ate</w>
ho li
haupts ächlich</w>
gra l</w>
g alax
flash player</w>
fac tors</w>
ex changed</w>
dra ws</w>
dimension alen</w>
desktop s</w>
cri tical</w>
bo t</w>
ben achrichti
archi ved</w>
a .
Z one</w>
W hat</w>
Vergröß ern</w>
OD F</w>
IS DN</w>
Formular felder</w>
C ateg
C TR
C MS</w>
Boo t-
Ac tions</w>
ta ch
rest lichen</w>
i x</w>
g lo
eli gi
dist inc
d i</w>
d ent</w>
d Base</w>
correc tions</w>
con stitute</w>
ch ro
centr ally</w>
auf bau</w>
assi stant</w>
ari ses</w>
abo v
Textra hmen</w>
So ft</w>
R ange</w>
R I
Pin sel</w>
Nok ia</w>
Min us
Mas se</w>
Di rect</w>
D M
D D</w>
Comm unity</w>
vor geseh
verbin det</w>
typ ed</w>
t c
stim men</w>
s lice</w>
net -
main tain</w>
m 2</w>
l am
klic k
integri ty</w>
gem essen</w>
geb ildet</w>
fla gs</w>
d on
ces .
auf ruf
Veränder ungen</w>
U P</w>
Star t-
R C</w>
Open SUSE</w>
Netzwerk verbindung</w>
K Mail</w>
J A
Ger many</w>
Defini tionen</w>
DL Ls</w>
Co unt</w>
Cli pboard</w>
Chin ese</w>
Baum struktur</w>
2. 5</w>
äu ß
wech sel</w>
vor gegeben</w>
ver steht</w>
sch au
s w
s low
regist ers</w>
o th</w>
id ation</w>
fas hion</w>
er enden</w>
enc ing</w>
d einer</w>
aut ori
ar range</w>
adv ance</w>
abov ementioned</w>
Ver klein
Richt ungen</w>
Mo use</w>
Merk male</w>
Hilfs linien</w>
Entwur fs
DO C</w>
Cur rent</w>
Cop y
Contin ue</w>
Bit map-
Be zeichnungen</w>
A re
7 8
änder ungen</w>
zufrie den</w>
wei ße</w>
verursa cht</w>
verknüpf ten</w>
um fassen</w>
so weit</w>
optim ale</w>
ne ver
ma th
kon stan
individu ellen</w>
i sch
h ref</w>
genommen en</w>
ge ometry</w>
ge mi
flu ghafen</w>
establi shing</w>
di um</w>
da tions</w>
co st</w>
chron ologi
bes ei
ber fläche</w>
be antwortet</w>
archi ving</w>
activ ating</w>
Uni code-
S K</w>
Pro fi
O L</w>
Mess ung</w>
J u
I ter
Fl u
Fin ish</w>
FF FF
Date Time</w>
C LA
B on
Aktualisi erungen</w>
25 0</w>
2 4-
zu geben</w>
ver teilen</w>
sub net</w>
sti ck
st one</w>
sol cher</w>
schri tte</w>
ro ll</w>
restric tion</w>
program mer</w>
pre tty</w>
part ner</w>
ge wechselt</w>
führ ende</w>
fäl tig</w>
extrahi ert</w>
ein hei
dis continued</w>
comp lic
any way</w>
an hängen</w>
an fangen</w>
adj acent</w>
Zei ten</w>
Vor lagen
V ok
Text ab
T il
Such an
STR ING</w>
Outlook -
Li ve-
Kur s</w>
In ten
IN SER
Fä higkeit</w>
Be obach
3 86</w>
- 2</w>
zu verlä
th eless</w>
sp an
sen k
recur sive</w>
prac tically</w>
numer ous</w>
ligh ts</w>
getrenn te</w>
care ful</w>
be zeichnung</w>
X MP</w>
V ektor</w>
T S
O P</w>
Maus klicks</w>
J ob
Graust ufen</w>
G D
Ent f</w>
Benutzerkon ten</w>
si ght</w>
regul äre</w>
pp y</w>
option alen</w>
never theless</w>
mäß ige</w>
leist ungs
grupp iert</w>
gr ub</w>
frü her</w>
con sec
bal ken</w>
an ony
abbrevi ations</w>
a- z</w>
Zäh ler</w>
W ette</w>
W ellen
Vie w
Twit ter</w>
To ken</w>
Te am</w>
Sh ared</w>
N TP</w>
Mo use
Kon stru
Fer tig</w>
Au ge</w>
tur ns</w>
trans lations</w>
tr ace</w>
sor g
so unds</w>
sig ning</w>
prä zi
por tra
itu de</w>
it e
hö chst
gre at
gleich er</w>
geh ol
den tial</w>
condi tional</w>
con signe
communic ations</w>
coll ect</w>
ak an
Ziel ordner</w>
Up grade</w>
Unter verzeichnisse</w>
Unter strich</w>
Typ e-
TI ON</w>
Scrip t
Re gel
R PC</w>
Pr int
Neu er</w>
Mechan is
Laufwer ks
Kar tei
Häu fig
Com mander</w>
B ei</w>
B ank
20 11</w>
x 1</w>
umfangr eiche</w>
u le</w>
to uch
rand om
out line</w>
m ware</w>
kin ds</w>
k al
in fo
fir e</w>
er weise</w>
engli sche</w>
emp feh
eingebau ten</w>
differ ently</w>
conven i
chem ical</w>
b o</w>
aus schnitt</w>
Wür fel</w>
Vorschau bild</w>
US ER
U X</w>
Seiten verhältnis</w>
SG ML</w>
Panor ama</w>
P K
O F</w>
Koordin ate</w>
Konto s</w>
I r
Ein bindung</w>
E M
Ch eck</w>
C H</w>
Bet reff
Benutzer daten</w>
B an
Artik eln</w>
5 12</w>
. de
- Objekt</w>
unterschied licher</w>
tim er</w>
th ir
sk in</w>
sha dow
sen sible</w>
schni tte</w>
sch ung</w>
roun ding</w>
rea gieren</w>
pi le</w>
mon thly</w>
k ennung</w>
inter national</w>
graphic ally</w>
fau lt</w>
exclu ded</w>
el ed</w>
ein gaben</w>
e e
di ents</w>
defin itely</w>
de uten</w>
dc asts</w>
betro ffen</w>
appar ently</w>
agre ement</w>
Wer te
Vi su
S wit
P- Server</w>
N ero</w>
Mitgli ed
M C</w>
Installation sprogramm</w>
G am
Fol gendes</w>
Dri tt
Bes onder
A us</w>
8- bit</w>
12 7</w>
0 4</w>
. v
Über tragungs
zo om
water mark</w>
tra ktion</w>
to wards</w>
t lichen</w>
standar dis
rat ings</w>
patter ns</w>
option ale</w>
mov ements</w>
mod i</w>
le i</w>
kon sole</w>
hö r</w>
hyp hen</w>
hin ein</w>
her vor
fän gt</w>
en tiert</w>
den sity</w>
debug ger</w>
ch -
bo un
be hör</w>
ap ters</w>
any one</w>
a f</w>
Wer tes</w>
True Type</w>
Screen shot</w>
Re al
Prozess or</w>
PD A</w>
P UT</w>
Open Document</w>
Li b</w>
Automati sch</w>
Aktivi täten</w>
Add- Ins</w>
Ab flughafen</w>
vor wärts</w>
ver einfachen</w>
tool tip</w>
techni ques</w>
st et</w>
rech ter</w>
r unter</w>
provi ding</w>
logi c</w>
link s
java .
j ahr</w>
inter ested</w>
inst ant</w>
hand eln</w>
ge m</w>
erforder liche</w>
eger ät</w>
diesel ben</w>
continu ously</w>
configur ing</w>
ash es</w>
an wählen</w>
Pro files</w>
Pro duc
Drucker treiber</w>
Boo t</w>
Benachrichti gungen</w>
Benachrichti gung</w>
Be zeichner</w>
B anner</w>
Amaz on</w>
32. dll</w>
übereinstim mt</w>
wra p</w>
verst anden</w>
tier ungen</w>
sch ten</w>
sammel n</w>
ri pping</w>
regar ding</w>
refer enced</w>
quanti ties</w>
per spective</w>
mit geliefer
l n</w>
in corpor
end lich</w>
down stairs</w>
deut sche</w>
da zugehörigen</w>
comp ri
ben de</w>
be zo
aktu ell
abgel aufen</w>
Z ins
W ahl
Transp ort</w>
Tim er</w>
Tem por
Pop up
Open Type</w>
M eg
Lo gi
Lap top</w>
Ent packen</w>
En gin
A v
A meri
. bat</w>
wor th</w>
wor te</w>
ver ein
v ars</w>
sp ati
post al</w>
pak et</w>
l y
komprim ieren</w>
initi ated</w>
i ter</w>
för mi
fä hr
fe edback</w>
ed -
d ein</w>
complic ated</w>
beschä dig
ber ry</w>
analy sieren</w>
Wer t
Video -</w>
S mi
Rah men
R ate</w>
Quar k
Play list</w>
Movie Clip</w>
M 4
La b</w>
K it</w>
Gr enz
FI LES</w>
Ex change
Disk us
Dies es</w>
D IN</w>
CMY K-
Buch ung</w>
Bro ad
B ran
Ab on
16 0</w>
- l</w>
wa ag
ver hält</w>
v 2</w>
to u
si t</w>
selbst verständlich</w>
ron ym</w>
reli able</w>
p ush
p eich
mem ber
lin king</w>
kno ts</w>
improv ements</w>
ima ge
erzeug te</w>
ech te</w>
downlo aden</w>
d av
consec u
ad ed</w>
acceler ation</w>
W et
System .
Stru ktur
Stri ch</w>
Ste p</w>
St rec
SP 2</w>
Pro ce
J RE</w>
Glob al</w>
Fuß zeilen</w>
DAT A</w>
Con fig</w>
Bild material</w>
verbesser te</w>
ti scher</w>
s u</w>
retri eve</w>
re duction</w>
p ause</w>
kon tak
kon kre
gli e
gesu chte</w>
esp aces</w>
er ed</w>
c utting</w>
au di
app lying</w>
Zu behör</w>
Wid get</w>
R ed</w>
PDF- Format</w>
N äch
Mod elle</w>
H alb
Dialog box</w>
Deut schl
3 9</w>
0000 0000
wie viele</w>
vertrauenswür digen</w>
st ory</w>
speci al
rese arch</w>
pre g</w>
pl ug</w>
l li
l ers</w>
is es</w>
ie geln</w>
ge be</w>
fun c</w>
fre m
er bare</w>
chti gen</w>
bin d</w>
auto -
ang er</w>
absol ut
Zeilenumb rüche</w>
Sy s
Man ag
M inde
Lei st
HTML -</w>
Foto gra
Com po
Bezieh ungen</w>
Action Script-
A m
4. 2</w>
3. x</w>
Änder ungs
zeu gen</w>
wild cards</w>
war nings</w>
verzeich nis
tool box</w>
rect angular</w>
rech nung</w>
propos al</w>
objec t-
l ack</w>
ges en
g ent
eff ec
diag no
c a.</w>
bet a</w>
arbei t</w>
alphabe tical</w>
WHER E</w>
User -
Span ish</w>
Sil ver
Mon ate</w>
Mehr fach
Kenn t
Gri d</w>
Gerä tet
G eld</w>
Exten sible</w>
Ex am
Empfän ger
Ele k
- Code</w>
z entral</w>
syn chron
screen shots</w>
sch utz
roun ded</w>
m peg</w>
j re</w>
group ing</w>
geänder ten</w>
g ateway</w>
erledi gen</w>
ein lesen</w>
b alls</w>
answer ed</w>
ab geschaltet</w>
Priv ate</w>
Par ser</w>
Pa y
HTML- Seiten</w>
Fir men
Ac counts</w>
8 00</w>
. c</w>
zi mal</w>
structur al</w>
statis tical</w>
stan ces</w>
signific ant</w>
si erten</w>
rec i
pa st</w>
p lo
lie ber</w>
la w</w>
l ern</w>
k ations
instruc tion</w>
füg te</w>
fa ils</w>
ein tippen</w>
ein iger</w>
ein ander
d ash</w>
block ieren</w>
aust auschen</w>
Trans formation</w>
T ick
Ro ute</w>
Pat ches</w>
Mo ve</w>
In tel</w>
Hi er</w>
G ame</w>
Dialog felds</w>
Di v
Daten felder</w>
Cy an</w>
Bedürf nisse</w>
Abbil dungen</w>
Ab brechen</w>
- i</w>
über greif
verw and
tain s</w>
t ml</w>
str act</w>
spä tere</w>
s un
invi te</w>
inte gers</w>
ho t</w>
friend ly</w>
ess entially</w>
es er
ek tion</w>
depic ted</w>
bel ong</w>
be ein
be arbeitung</w>
att ach</w>
Vorder grund
U l
Mem ber</w>
Krei se</w>
Koordinaten system</w>
Kommando zeilen
F I</w>
D el</w>
D PI</w>
C T
Berechti gung</w>
Al b
A mar
8 6
3 7</w>
19 9
. as
wei t
sym pt
sympt oms</w>
spell check</w>
schliess end</w>
satis fied</w>
s ession
pro je
polyg on</w>
ma r</w>
ma pped</w>
ke yst
ing ly</w>
incre ment</w>
hu man</w>
hig keiten</w>
fav ori
ersch nitt
di ffers</w>
deli very</w>
dat ed</w>
cont ent-
benutz e</w>
basi eren</w>
Zah lungs
Voll text
Ver gleich
Umgeb ungen</w>
Skript sprache</w>
S ymbols</w>
Rei hen</w>
Quark X
Proble m
P L</w>
Installations verzeichnis</w>
IC C</w>
H ol
Formati eren</w>
Bel ie
---- ----
übri gen</w>
ver antwor
to wn</w>
sti l</w>
stati schen</w>
sta tions</w>
sorg fältig</w>
sem inar</w>
r d</w>
on ym
htt p
heraus finden</w>
her r
ger ne</w>
firm ware</w>
ent ary</w>
emplo ye
eich es</w>
dispat ched</w>
dis appears</w>
dis appear</w>
d cast</w>
com mit</w>
c i</w>
c fg</w>
bl aue</w>
ag ed</w>
ad min
St op
Sp ek
S etzen</w>
R ich</w>
Pra xis</w>
Multi media</w>
Mak e</w>
Klar text</w>
Internet seiten</w>
Gerä tes</w>
Ein trags</w>
De vi
DB C-
Besch rän
Beli chtungs
Auto desk</w>
An der
. wav</w>
- a</w>
ver sionen</w>
up loading</w>
ti ll</w>
relation alen</w>
r aten</w>
post -
no chmal</w>
neg ativen</w>
in nen</w>
hei ßen</w>
gen cy</w>
erwar ten</w>
erklär en</w>
archi vi
an geschlossenen</w>
Un it</w>
UR L
Stre am
Ro uters</w>
Rech ner
Re ad</w>
Proce dur
Pl ane
Mo unt</w>
L eu
Ker ber
C 1</w>
Ber eit
B ru
Adobe -
Übersetz ungen</w>
x 3</w>
win s</w>
wi des
verschwin den</w>
umzu wandeln</w>
u id</w>
suppor ting</w>
spe ak</w>
publi shing</w>
nach folgende</w>
n al
müs st</w>
mathemati sche</w>
lin gu
le eres</w>
k reis</w>
geänder te</w>
geschlossen e</w>
gesch wei
frei gegebenen</w>
erlau b
ein zut
dis advantage</w>
deposi t</w>
b ration</w>
ax es</w>
algorith ms</w>
absolut ely</w>
U I</w>
St ack</w>
SM TP-
Pu ffer</w>
GI N</w>
F- Format</w>
F S-
Einfü ge
E L
Daten sätzen</w>
CTR L</w>
C hr
Bu ild</w>
Bewer tungs
Ar ab
Ab messungen</w>
3. 5</w>
12 0</w>
- Wert</w>
ul tic
su ite</w>
sche dule</w>
sch wi
prin tf</w>
pa y</w>
ober sten</w>
n den</w>
men gen</w>
la titude</w>
inde ed</w>
geh ei
g erung</w>
flä chen
expla ined</w>
erk ennung</w>
eingeb aut</w>
e -</w>
dimen sion</w>
devi ation</w>
an schauen</w>
af ter
X F
Werkzeu gen</w>
Web- Browser</w>
Ver anst
Vektor grafiken</w>
Statisti ken</w>
R U
R S
Per formance</w>
Mar ke</w>
Mail ing
H al
H S
H P</w>
Fr anzö
Explor ers</w>
D em
App let</w>
- Seite</w>
über gebenen</w>
Ü bung</w>
zwei tes</w>
zurück setzen</w>
yn om
win kel</w>
wiederher zustellen</w>
vergleich t</w>
val idation</w>
th reads</w>
th in
st ufen</w>
simultane ous</w>
run -
render ed</w>
reg ard</w>
par sing</w>
n ennen</w>
my self</w>
mitt lung</w>
meta -
line are</w>
ligh t
k einer</w>
je des
jedes mal</w>
intui tive</w>
indic ator</w>
geometri c</w>
fin an
exp ect</w>
ess es</w>
erhält lich</w>
de b
cron tab</w>
berücksichti gen</w>
amp p</w>
ach te</w>
absol ut</w>
Zeitz one</w>
St eck
S w
R änder</w>
MB R</w>
Foli en
FAT 32</w>
F 10</w>
En able</w>
Datei systeme</w>
D ell</w>
Con sortium</w>
Book marks</w>
6 6
. SYS</w>
Ü ber</w>
wähl bar</w>
trans fers</w>
sur vey</w>
sq rt</w>
resp ect</w>
m es</w>
las sic</w>
i ere</w>
favori te</w>
equ ations</w>
be ob
be deuten</w>
back wards</w>
aust ausch</w>
al th</w>
a i</w>
Verbin den</w>
U R</w>
Sh ell-
Ru bri
Ran dom</w>
Poin ts</w>
Materi al</w>
Li braries</w>
Ku geln</w>
Jan u
For ce</w>
Cont ent-
C at
B Y</w>
Ab stände</w>
3. org</w>
voraus gesetzt</w>
veri fied</w>
ungse bene</w>
ti ppt</w>
soci al</w>
sk ills</w>
posi t
pat ches</w>
olo gy</w>
dis ks</w>
col o
belon gs</w>
at omic</w>
access ories</w>
Zw ecke</w>
V on</w>
Sk in</w>
S PA
Plane ten</w>
H ell
Fre md
F 12</w>
E S
Ch art</w>
BI C</w>
B ur
Ab spiel
AI M</w>
0. 5</w>
0 1.
- Klasse</w>
- Attribut</w>
über tra
wieder geben</w>
wei s
we ak
ver zi
uf en
supple mented</w>
sp ac
shap es</w>
regel mäßigen</w>
post ro
pic k</w>
pack ets</w>
mar gins</w>
inst an
in spektor</w>
hand les</w>
gesetz te</w>
ge ordnet</w>
g ly</w>
es tim
er fordern</w>
ei ten</w>
c au
bereit stellen</w>
app le</w>
ang er
ab ul
Tool box</w>
Steuer element</w>
St ein</w>
RF C
R ollen</w>
Programm code</w>
Nutz er
MI ME-
List ing</w>
Initi alisierung</w>
Inclu de</w>
Helli gkeits
Gu ide</w>
Gl yp
E-Ma il
Direct X</w>
Com bo
B S
Alph abet</w>
Ach sen</w>
A ir
77 7</w>
v ac
three- dimensional</w>
t ter</w>
sti t
so g.</w>
record ings</w>
pre fer</w>
pp p</w>
oper ationen</w>
n t
multipli ziert</w>
klein ste</w>
k u
j pg</w>
inform ieren</w>
hal ten
grafi sch</w>
folgen d</w>
famili ar</w>
et t</w>
eri g</w>
er zwin
ein schalten</w>
dupli zieren</w>
du s</w>
docum ent.
d eine</w>
consigne e</w>
con tour</w>
bedien en</w>
b right</w>
at -
Tar get</w>
Statisti k</w>
Rele ase</w>
Netzwer ken</w>
G anz
G al
G ad
Di r</w>
Daten -
D an
CGI -
C entral</w>
Besch leun
Auf rufen</w>
2. 6.
über flüssi
wides pre
widespre ad</w>
wer ke</w>
vi d
versch achtel
un gen
typ e
tur ning</w>
sent ences</w>
re pair</w>
pak ete</w>
ok ay</w>
m essen</w>
le ge</w>
hinter legen</w>
ge druck
funk tions
fort gesetzt</w>
e o</w>
die jenigen</w>
com position</w>
c d
ber i
beh ält</w>
au ff
an schliessend</w>
Y ellow</w>
Vorschauf enster</w>
Un install</w>
T EXT</w>
S FTP</w>
Re ports</w>
Quad rate</w>
O ver</w>
O LA
MAC- Adresse</w>
M e</w>
Köni g</w>
Energi e
D s</w>
CO MB
Biblio thek
Aus schneiden</w>
- Dialog</w>
ähn liches</w>
system en</w>
subsc ription</w>
st ec
sp read</w>
sing le-
organ is
on- the-
ni tt</w>
los es</w>
i ous</w>
gesetz ten</w>
foo ters</w>
er ung
d den
can vas</w>
bo olean</w>
band width</w>
arithme tic</w>
ange mel
an gen
ad block</w>
Stru kturen</w>
Sti ft</w>
Sp y</w>
Per s
Optim ierung</w>
Maus rad</w>
Les barkeit</w>
Gül tigkeit</w>
Ghost script</w>
Farb werte</w>
F E
Ex pres
Bildbe arbeitung</w>
Anwen den</w>
über geordneten</w>
us able</w>
sto ck</w>
st ated</w>
lang sam
land scape</w>
kur zer</w>
kre cht</w>
ho her</w>
ge t.
ful filled</w>
forma l</w>
fehl enden</w>
far b
enclos ed</w>
den e</w>
deci ded</w>
contain ers</w>
check box</w>
be ar</w>
avail ability</w>
at uren</w>
an gesehen</w>
ali asing</w>
ab stand</w>
ab sor
Weiß abgleich</w>
Th read</w>
Sty le
SYSTE M</w>
S napshot</w>
S ection</w>
Programm fenster</w>
O RA
N V
Ma themati
Kontakt liste</w>
Kont ur</w>
INSER T</w>
Debug ger</w>
CH KD
AT A</w>
6 5</w>
0 3</w>
- s</w>
- Software</w>
- Befehl</w>
unterschie den</w>
to t
tho us
spati al</w>
sch ool</w>
photo graph</w>
natur ally</w>
meas uring</w>
he art</w>
gover n
gewin nen</w>
ger aden</w>
flo ating</w>
er stell
di ger</w>
desc ending</w>
colo ured</w>
blen ding</w>
be find
be achtet</w>
back slash</w>
auf weist</w>
ann ual</w>
ak ter
abon nieren</w>
a ir</w>
Z oll</w>
Wiedergabeli ste</w>
Sk ins</w>
Sek tion</w>
Seg ment</w>
SQ Lite</w>
S CR
R .</w>
Proze dur
Men schen</w>
L etz
Komp ili
Ja hren</w>
HTML- Dateien</w>
Gest altung</w>
Euro pe
Dreh ung</w>
Br enner</w>
Book mark</w>
An rufe</w>
0. 2</w>
änder ung</w>
top ic</w>
stri p</w>
screen saver</w>
peich ern</w>
mu si
medi en</w>
look up</w>
erheb lich</w>
dic ation</w>
dem and</w>
de coded</w>
d v
au th</w>
abge arbeitet</w>
Z ul
X- Server</w>
Skal a</w>
Samb a-
O ne
Konta kten</w>
K ach
J D
Fon t
ER S</w>
Conver t</w>
Connec tor</w>
Cli p
CSV -Datei</w>
COMB O</w>
App lets</w>
- Feld</w>
Über nehmen</w>
zurück zu
ym ents</w>
ver lin
ver altet</w>
trans formed</w>
sch ickt</w>
ra id</w>
r -
persi stent</w>
per ture</w>
pain tings</w>
ni cht
mo us
mi um</w>
li te</w>
k tive</w>
ho ut</w>
h ung</w>
h len
f ein
exclu de</w>
ex plor
eingebet teten</w>
do ck
decl are</w>
comp ly</w>
caus ed</w>
bil dern</w>
ange forder
St ufen</w>
P au
Of f</w>
H .
F 11</w>
Eigent ü
Ameri can</w>
über sichtlich</w>
öffent lich</w>
valu ation</w>
um fass
u .</w>
stopp en</w>
sen krecht</w>
ro les</w>
rect angles</w>
re vision</w>
prin table</w>
post fix</w>
po sts</w>
organi sieren</w>
n nen</w>
mi schen</w>
mask ed</w>
lat eral</w>
l anden</w>
l .
i z</w>
hal tung</w>
führ te</w>
el ection</w>
el e</w>
eingebet tete</w>
drin gend</w>
de cken</w>
d m
bro ken</w>
black berry</w>
auftau chen</w>
as y
ange wand
access es</w>
acces sibility</w>
Variab len
Sch l
S uf
R uf
Qu o
Man ip
Ma x</w>
M ix
Info s</w>
Do ck</w>
Diag no
D C</w>
CHKD SK</w>
Bü cher</w>
Beschreib ungen</w>
An spruch</w>
Abkürz ungen</w>
tr acking</w>
tau schen</w>
supp ose</w>
st ück</w>
st d</w>
specific ations</w>
shadow s</w>
sh er</w>
ro ad</w>
random ly</w>
r aum</w>
quad ra
omet rie</w>
le u
lauf end</w>
kö mm
kon si
gra u</w>
genü gend</w>
g aran
fram es
fak tor</w>
demon str
dav or</w>
d m</w>
consi st</w>
cli ent-
appoint ments</w>
ab el
Wochent ag</w>
Wir kung</w>
Troj an
System dateien</w>
Sit es</w>
Organ is
O L
Inte gri
Frei gaben</w>
Franzö sisch</w>
Dup lik
Do c</w>
D en
Comp onent</w>
B LO
uti lity</w>
um -
tsp ot</w>
t ang
st ers</w>
sch affen</w>
neu eren</w>
n s
modi fications</w>
lat ein
interes siert</w>
in er</w>
i 386</w>
hinter einander</w>
gu ess</w>
gleich nam
gebrau cht</w>
frei gabe</w>
ff t</w>
f ted</w>
ein geschlossen</w>
eck ige</w>
doppel ten</w>
di ce</w>
chti g</w>
c ups</w>
b lendet</w>
ad vis
Wun sch
V ector</w>
Tr ack</w>
Tem plat
TI F
Start -</w>
Sh ap
Proje kten</w>
Posi tions
P RE
Namen sr
N O</w>
Media Wiki</w>
J S</w>
Inst rum
H K
Format vorlagen</w>
Einschrän kung</w>
E MA
Dri ver</w>
Dra w</w>
D o</w>
Cer tific
CO UN
Bewe gungs
Aus schnitt</w>
255.255.255. 0</w>
2 F</w>
.mp 3</w>
- t</w>
über schritten</w>
standardis ed</w>
sp richt</w>
sichti g</w>
setz ten</w>
sch w
pu zzle</w>
ori ties</w>
opp onent</w>
k ü
ima gine</w>
h l
h an
fi es</w>
explan ation</w>
end -
eich er</w>
dele tion</w>
consi st
cli ent
cap tion</w>
U sen
Tem p</w>
Sour ce-
Silver light</w>
Sh ape</w>
Sch ed
Nul len</w>
Menü eintrag</w>
Kenn wörter</w>
K ran
Develop er</w>
CV S</w>
Back up-
Arbeits blatt</w>
5 7</w>
äl ter</w>
z end</w>
x ampp</w>
ur ance</w>
ungs -
unerwünsch te</w>
stän dige</w>
stam mt</w>
stab elle</w>
s lot</w>
mapp e</w>
leist et</w>
kla ppen</w>
gewähr leisten</w>
getro ffen</w>
full screen</w>
flo or</w>
expor ts</w>
et ings</w>
einzut ragen</w>
einzu richten</w>
co diert</w>
classi cal</w>
ch il
call back</w>
bil det</w>
ber n</w>
b r</w>
ar ity</w>
and a</w>
Synchroni sierung</w>
Spezi al
Sp ri
She et</w>
Sen sor
R SA</w>
QuarkX Press</w>
Mittel wert</w>
Mit teilung</w>
F unc
Europe an</w>
Ein la
D ashboard</w>
Comp il
Cmd let</w>
An melden</w>
zuge wies
www. example.com</w>
trans lat
thro ug
sp here</w>
schwi erig</w>
regar ded</w>
mini ster</w>
mer ely</w>
mat a</w>
manu ellen</w>
m ely</w>
kodi eren</w>
key frame</w>
invent ory</w>
ihr es</w>
i erungs
hist ogram</w>
hierarch ical</w>
her kömm
gra des</w>
gra b</w>
gesammel t</w>
foo t</w>
fini te</w>
farbi gen</w>
erk arten</w>
en v
di am
dar um</w>
beschleun igen</w>
ausführ bar</w>
an ordnen</w>
addi ert</w>
abschließ end</w>
Sti l
Scrip te</w>
Qualit äts
Prä fix</w>
Pak eten</w>
PO P</w>
Listen ansicht</w>
Instan z
Geschä fts
Gen eri
Firefo x-
Elek tron
Co ordin
Black Ber
4 .</w>
200 1</w>
. S
vor aus</w>
um geb
throug hout</w>
th res
stre aming</w>
separ ates</w>
selem ente</w>
re places</w>
milli seconds</w>
mi gration</w>
mach ines</w>
m im
la id</w>
in et
h ilfe</w>
grü ne</w>
gangs server</w>
fort fahren</w>
forma tierte</w>
fil ls</w>
dama ge</w>
confi dential</w>
compan ies</w>
c .
bar ri
alter ed</w>
Wik i-
Vergröß erung</w>
Suchergeb nis</w>
Scan nen</w>
S lo
Oper ators</w>
O FF</w>
Noti z
Nach komma
Konver ter</w>
J VM</w>
Filter einstellung</w>
F 3</w>
Dis c</w>
Colum n</w>
B E</w>
Amar ok</w>
9. 0</w>
5 2</w>
über schriften</w>
w om
tt y
tim et
there after</w>
tatsäch lichen</w>
sti cks</w>
st ap
sim ulation</w>
shr ink</w>
shor ter</w>
scal ar</w>
rel ations</w>
recogni se</w>
pri mar
posi tiv</w>
pa yments</w>
ms c</w>
kompon enten</w>
k tionen</w>
hinter le
hin ten</w>
her e
hei sst</w>
geb unden</w>
g t
extre mely</w>
erweiter ung</w>
engli sch</w>
en dar
el le
e uro</w>
characteris tic</w>
cer tification</w>
c ube</w>
c row
c ame</w>
bezü glich</w>
benutz ten</w>
and t</w>
adap tation</w>
a .org</w>
Z ip
Wur zel
Win 32</w>
Vor gän
T om
Speci al</w>
S aving</w>
Richt linie</w>
RO OT</w>
NA S</w>
Laun cher</w>
Klic ks</w>
Kin d
HP- UX</w>
E mails</w>
Direc tive</w>
DH C
Brei ten
B ah
B 2</w>
A spe
zü ge</w>
zulä ssi
un wanted</w>
tz e</w>
text ures</w>
sp lash</w>
si ko</w>
refl ect</w>
rec al
mehr mals</w>
le tin</w>
gi os</w>
geeig nete</w>
geb nis</w>
ge plan
g ate</w>
er füllen</w>
entschlüssel t</w>
dah inter</w>
bili tät</w>
bei des</w>
al- time</w>
Zugriff e</w>
Z entr
We ge</w>
War teschlange</w>
Um fang</w>
Simple SY
Pers ön
Original größe</w>
OR DER</w>
N au
Milli sekunden</w>
Lok ale</w>
Les er</w>
Deutschl and</w>
De aktivieren</w>
Bewe gungen</w>
Beri cht
Beispiel en</w>
Aktivi tät</w>
Abo ut</w>
z ess</w>
w al
voc abul
ung leich</w>
trans fer
situ ations</w>
simpli fy</w>
setz e</w>
sel ten</w>
ryp to
rout ing</w>
re jected</w>
re alize</w>
r sync</w>
pro mis
no tify</w>
komprimi erte</w>
kompati ble</w>
k Ã</w>
j s</w>
ie -
ht m</w>
fähi gen</w>
enab ling</w>
en er</w>
effizi ent</w>
e. com</w>
bin ding</w>
W a
Umgebungs variablen</w>
Son gs</w>
Sho p</w>
Schlüssel s</w>
Read y</w>
PS P</w>
Oper anden</w>
M il
M M</w>
Grund lagen</w>
F ein
Dekl aration</w>
Block s</w>
Aus drücken</w>
Auf zeichnung</w>
A pf
we gi
um b</w>
sum s</w>
sp ool</w>
sol ches</w>
sicher es</w>
pi te</w>
on-the- fly</w>
occurr ence</w>
object- oriented</w>
measure ments</w>
m Ã</w>
m einen</w>
k ör
gl au
form -
entwick eln</w>
electri city</w>
eingebau te</w>
dr en</w>
cr on</w>
compo und</w>
bro ught</w>
b löcke</w>
X Y
Weiter leitung</w>
V C</w>
Uni form</w>
Time out</w>
Signat ur
Po wer</w>
P ID</w>
Maxim al
Gr enzen</w>
Fil l</w>
Domän en
Do mains</w>
Digitalk amera</w>
C u
C ase</w>
Band breite</w>
2. 4</w>
.j peg</w>
vie w
til us</w>
st est</w>
sp h
seu do
rück wärts</w>
remo ving</w>
r unden</w>
monit ored</w>
j p
ge filtert</w>
g p
execut ing</w>
er rechnet</w>
ensu red</w>
engli schen</w>
dden ly</w>
construc tion</w>
compar es</w>
authen tifi
ari an</w>
U ML</w>
Tri g
T F</w>
Sm all</w>
R P
Po li
Ma in
K asten</w>
Home- Verzeichnis</w>
Him mel
Fir mware</w>
Diagram m
Datei formaten</w>
Belie ben</w>
B lät
Are a</w>
Ab ständen</w>
5. 5</w>
2 D-
.html .</w>
ur z</w>
unabhängi ge</w>
ten de</w>
su ddenly</w>
micro phone</w>
m ann</w>
läu ter
len g
kontak tieren</w>
key frames</w>
incre asing</w>
frequ ent</w>
fehlerh afte</w>
explan atory</w>
des pite</w>
d omin
d einen</w>
ch apters</w>
att acks</w>
ann a</w>
Z au
Web- Server</w>
Seg mente</w>
Satz zeichen</w>
P ati
M ün
Laut sprech
Laufzeit umgebung</w>
K asper
Host -
GU ID</w>
Fak tor</w>
F lo
Cy cle</w>
CO NT
B alk
B O
36 5</w>
.j s</w>
.d b
. at</w>
übli che</w>
wor d
week day</w>
ver blei
unden e</w>
un available</w>
short ly</w>
selec table</w>
sei en</w>
secon dly</w>
rä f
recruit ed</w>
re pli
preser ved</w>
po ker</w>
kontro lle</w>
klein eren</w>
inver ted</w>
gel y</w>
fü ge</w>
fon t-
ext ent</w>
excee ded</w>
eri gen</w>
atten tion</w>
assem bly</w>
as ym
an zusehen</w>
an sichten</w>
Verbesser ungen</w>
Systema d
Start bildschirm</w>
Son nen
Peri o
Mac OS</w>
K DE
H D</w>
Fä higkeiten</w>
F D
Er läuter
Edi ting</w>
Daten quellen</w>
Ch ri
Butt on
64- Bit-
. mo
- r</w>
öffent liche</w>
Übereinstim mung</w>
z y
x p</w>
vo id</w>
ver such</w>
stu dy</w>
selek tieren</w>
saf ely</w>
oper ational</w>
occ a
neu n</w>
kno pf</w>
kenn zeichnen</w>
i zation</w>
i ste</w>
ge sts</w>
fähi g</w>
fest gestellt</w>
ein heit
durch schnitt
content- type</w>
consecu tive</w>
benachrichti gt</w>
beeinflus st</w>
b logs</w>
angewand t</w>
Visi ten
Th reads</w>
T ABLE</w>
Ni cht</w>
Ma gi
M s</w>
Lo ader
Link -
G alax
E scap
Beh and
Bedürf nissen</w>
An tivi
AS E</w>
A I</w>
12 34
- p</w>
techni sche</w>
subtr action</w>
spread sheets</w>
soll test</w>
redu ces</w>
provi sion</w>
pro be</w>
prin ts</w>
pri mi
objec tives</w>
no ten</w>
mo vi
mir r
ls x</w>
lei t
las er</w>
i er</w>
hol t</w>
h d
gener ic</w>
fizi erten</w>
exak te</w>
erfolgr eichen</w>
ein mali
ei le</w>
dic tion
coll ections</w>
ange hän
ab stract</w>
Zit at</w>
Z y
Y- Achse</w>
Wi z
Sub traktion</w>
Pf licht
PN G
PDF- Dokumenten</w>
Off set</w>
OD ER</w>
No tation</w>
Gr enze</w>
Fing er
Buchstab en
Bu g</w>
Benutzer definiert</w>
Au gen</w>
. f
über schreibt</w>
vor gangs</w>
vari es</w>
vari ations</w>
technolo gies</w>
t oler
smar t</w>
res sive</w>
protokol liert</w>
programm ers</w>
or y
note book</w>
menu bar</w>
le ment</w>
lar gely</w>
la ge
kon stru
keyst roke</w>
inter nation
in voice</w>
im plic
htt pd</w>
gu ys</w>
gradu ally</w>
gr auen</w>
geb nisse</w>
fin gers</w>
fer ence</w>
f anden</w>
dat as
chti ge</w>
c a</w>
aus gibt</w>
War en
Sound karte</w>
PA L</w>
Laufwer ken</w>
Krei s
Kon sol
Kom bin
Farb verlauf</w>
F -</w>
E asy</w>
DAT E
Comp onents</w>
Arbeits bereich</w>
Alph akan
Abta strate</w>
Ab lauf
AC L</w>
9 0
5 1</w>
2. 0.
2 3
wer den
th row</w>
t ones</w>
sys log</w>
sp rechen</w>
sour ce
signi ert</w>
setz ungen</w>
roo t-
re ve
re al-time</w>
r pm</w>
r as
produc ing</w>
oper ated</w>
num meri
ma -
long itude</w>
get an</w>
fl at</w>
fi tting</w>
effec tively</w>
edi tiert</w>
e ering</w>
di al
destro yed</w>
cy cle</w>
co vers</w>
benutz er</w>
be herr
b ungs
b rech
as e
app lets</w>
advis able</w>
a tives</w>
a di
Zust ände</w>
Zah lung</w>
XML- Format</w>
Vorschau bilder</w>
Sel ected</w>
O f</w>
O -
K ürz
J etzt</w>
Häufig keit</w>
Gr össe</w>
G mail</w>
Feat ure</w>
F lick
Edi toren</w>
Cre ate
Buch ungs
19 99</w>
.c sv</w>
zer tifik
zentr ale</w>
wichti ger</w>
unter sucht</w>
suppli er</w>
spra ch
spezifi ziert</w>
slow ly</w>
sat elli
s l
re kur
re ach
primar ily</w>
pri ces</w>
l a</w>
interrup t</w>
inter aktiven</w>
h 1</w>
größ ten</w>
gewin nt</w>
fri end</w>
filen ames</w>
ff ekte</w>
di dn</w>
ch ern</w>
auf heben</w>
an ager</w>
alig ned</w>
Web servers</w>
T ages</w>
Sicht barkeit</w>
Serien nummer</w>
Scrip ting</w>
Num bers</w>
Minim um</w>
M id
M assen
Kör per</w>
Kasper sky</w>
G aus
Explor er-
Eingabe maske</w>
E uro</w>
Dialo ge</w>
Aus lesen</w>
2. 6</w>
1. 6</w>
. B
zurück gibt</w>
zu gelassen</w>
wor thy</w>
verantwor tlich</w>
unter suchen</w>
un ts</w>
transform ieren</w>
tr ust</w>
techni cally</w>
t ween</w>
t l</w>
stu dio</w>
stelli ge</w>
st off
re ine</w>
promp ted</w>
posit ories</w>
p il
on al</w>
mar gin-
ip config</w>
in ner</w>
if config</w>
hil fr
g ap</w>
exa de
en tieren</w>
de ms</w>
can di
b aut</w>
b a</w>
ang el
amer ate</w>
ali zer</w>
agg reg
abzus peichern</w>
W es
Verw altungs
Verbin d
Umgebungs variable</w>
Tie fe</w>
Text uren</w>
Set up-
S ID</w>
S H</w>
Re store</w>
Open VPN</w>
Musik dateien</w>
Kom pres
K raft</w>
H exade
Feld namen</w>
Er zeugen</w>
Ema cs</w>
DW G</w>
B aust
B and</w>
Auf rufe</w>
An sichts
. ch</w>
Überwach ung</w>
zu gr
x- Achse</w>
work space</w>
there of</w>
stär ke</w>
speich er
some what</w>
se em</w>
s ymbole</w>
s a</w>
re alisiert</w>
präsen tieren</w>
po t</w>
p lot</w>
ob served</w>
ob ige</w>
no tic
impor ts</w>
guarante e</w>
gl ance</w>
gan z
g alerie</w>
fundam ental</w>
forma tierung</w>
ein loggen</w>
dialo gs</w>
diagram m</w>
conflic t</w>
beg onnen</w>
bas eline</w>
at ures</w>
aff ects</w>
Ver knüp
UNI X-
Sc ann
SS H
Re porting</w>
Qu es
Passwor ts</w>
Nau tilus</w>
Men u
Mechanis mus</w>
M F
Live Cycle</w>
L ar
H tt
Form ats</w>
Fl ug
Fern seh
Defaul t
CRE ATE</w>
A F
7 6</w>
.s w
- c</w>
ün sti
ätz en</w>
w rote</w>
w 3.org</w>
un t
tro uble</w>
tivi tät</w>
ti pp
s leep</w>
run- time</w>
rela tiven</w>
mobil en</w>
lic es</w>
lar gest</w>
komfort abel</w>
j umps</w>
ip s</w>
index ed</w>
in verse</w>
in active</w>
gehol t</w>
for ge
fail ure</w>
f c
eligi ble</w>
down wards</w>
coun t
ce ase</w>
block ing</w>
b st</w>
ate x</w>
ad don</w>
Vor gänge</w>
T äti
Schreib rechte</w>
S we
Result at</w>
Ra dio
Prin ting</w>
N ieder
Men gen</w>
Kün st
En coding</w>
Edi tieren</w>
Dire kt
CLA SS
Au gen
Al low
.r tf</w>
wär en</w>
work station</w>
veri fication</w>
tu -
t ori
t d</w>
support. microsoft.com</w>
summ ari
su it</w>
sm t
short list</w>
sem anti
ro aming</w>
re use</w>
prü f
pl as
ph on
per fe
pa pers</w>
le af</w>
instrum ent</w>
grupp ieren</w>
get. adobe.com</w>
ge arbeitet</w>
frü here</w>
form er</w>
einer lei</w>
d ä
contr acts</w>
cons ul
c t</w>
betreff en</w>
be wer
authoriz ed</w>
aufge hoben</w>
au spro
alphanumeri c</w>
aff t</w>
Voll ton
Tr ennung</w>
Se arch
R S</w>
R PM</w>
Priv at
Position ierung</w>
Mu sic</w>
L atex</w>
Kon ton
Key board</w>
Gr unde</w>
F 7</w>
Ev ents</w>
E ben
Direct ory-
äti gung</w>
zugr unde</w>
wik ipedi
tun nel</w>
tu de</w>
techni sch</w>
sug gests</w>
st op
s al
restric t</w>
ra g
i f-
i Cloud</w>
gu est</w>
größ te</w>
gest altet</w>
gener ating</w>
fl ush</w>
fac e
enc il</w>
einzu binden</w>
diction aries</w>
den de</w>
de code</w>
br auch</w>
b les</w>
asp ects</w>
an pass
after wards</w>
ab yte</w>
WA V
W is
Span isch</w>
Portfoli o</w>
Pop -
Pay P
PO SI
P U
Navig ation
Minus zeichen</w>
Man u
Link sklick</w>
Kan ten
J S
Hierarch ie</w>
Hand ys</w>
H aus
Fram e-
Fahr zeu
Bildschirm auflösung</w>
Ap ach
Active X
Abweich ungen</w>
4 9</w>
- Schaltfläche</w>
work place</w>
w us
unterstütz te</w>
thir d-
st at</w>
sp ur</w>
si erungs
sho wing</w>
optim ized</w>
objekt orienti
na p</w>
magne tic</w>
lei sten
lab elled</w>
k not</w>
initi als</w>
dire k
defin ing</w>
conclu ded</w>
check sum</w>
blät ter</w>
bene fit</w>
back gro
auszu geben</w>
auszu blenden</w>
auf bauen</w>
ac t
abzu legen</w>
Z END</w>
X. 50
U .</w>
Sign ale</w>
Short cut</w>
Sat elli
SP RO
Recht ecke</w>
Rah mens</w>
Quad rat
Po ten
Open BSD</w>
Nor wegi
Mod ells</w>
Kateg ori
IN FO</w>
Foo ter</w>
F ach
Chr on
Cho ose</w>
Bit maps</w>
At tach
An hängen</w>
Algorith men</w>
Ab satzes</w>
. i
zeich neten</w>
wichti gste</w>
vorher geh
vocabul ary</w>
validat or</w>
unter geordneten</w>
transmit ter</w>
tar .gz</w>
server- side</w>
sc i
proz ess
pa ired</w>
oper ands</w>
om en
o uter</w>
m v</w>
lie fer
k on</w>
k einerlei</w>
ill ustr
ger un
exis tierenden</w>
et ype</w>
er ende</w>
dro p
defaul t.
b ungen</w>
aus geliefert</w>
arch itecture</w>
an weisungen</w>
ack ed</w>
Ziel verzeichnis</w>
XX X</w>
WM F</w>
Ver i
Val ues</w>
V B</w>
Trans form</w>
T H
Pro cess</w>
Open -
O B
Inter aktion</w>
F ül
C it
An lagen</w>
Ab lage</w>
4 D</w>
. fl
- Anweisung</w>
wiederher stellung</w>
wav el
w p-
uri er</w>
transi tions</w>
tra y</w>
suppli ers</w>
sub set</w>
seri elle</w>
s yst
php .net</w>
nach folgend</w>
milli on</w>
mi x</w>
mathemati schen</w>
m .</w>
lö cken</w>
log os</w>
lin ear
ite ktur</w>
in cidentally</w>
gewähr leistet</w>
ge fähr
frei er</w>
forma tions</w>
for ename</w>
comprehen sive</w>
bu d
bi blio
besteh end</w>
ausge drückt</w>
auf ruft</w>
archi viert</w>
all en
ak tions
age ment
ab stra
WM V</w>
Usen et</w>
Res ol
Proble ms</w>
Origin al-
Nutz ern</w>
M ut
L L
Kern el-
Ex por
Daten verlust</w>
Datein amen
Co ver</w>
Archivi erung</w>
A A</w>
6 7</w>
5 .</w>
zer os</w>
vi erte</w>
verl angt</w>
u gh
si de-
re ject</w>
r uler</w>
r ar
proz ess</w>
pre dic
ob sol
ni ce</w>
me ant</w>
manip ulate</w>
man i
mag enta</w>
ko sten</w>
jus tified</w>
gewis se</w>
fir m</w>
ey es</w>
ent schei
embed ding</w>
el se
des wegen</w>
coun ted</w>
construc t</w>
consi sting</w>
conc ern</w>
compar able</w>
bz w</w>
bu chst
ber icht</w>
ausführ baren</w>
aus sa
au sch
ass er</w>
as en</w>
all ein</w>
Word- Dokument</w>
Win k
Vorsch läge</w>
Te sten</w>
Tasten kürzel</w>
Speicher medium</w>
Sh are</w>
Saf e</w>
S un
S L
Ru he
Res er
Re par
R IP</w>
Prüfsum me</w>
Pro xy
Po inter</w>
Namensr aum</w>
Nachkomma stellen</w>
Mo del
K ä
In Design-
IP sec</w>
Formular feld</w>
Ergebnis liste</w>
Domain -
De fin
D F
Coordin ated</w>
C all
Al t
3. 4</w>
wi der</w>
verstec kten</w>
un lock</w>
transpar ente</w>
si eben</w>
schnitt stelle</w>
sch ein</w>
or ange</w>
obvi ously</w>
investig ate</w>
ic e
highligh ting</w>
happen ed</w>
gi b</w>
gg le</w>
emp fan
classi fication</w>
c s
bevorzu gte</w>
be stellen</w>
ad minister</w>
a gieren</w>
Trig ger</w>
TC P-
TA N</w>
Such leiste</w>
Schrift farbe</w>
RG B
R em
Quell dateien</w>
P ST</w>
L eute</w>
K li
IE E
Cl u
Blu -
Bestäti gungs
Be zu
B ug
4 6</w>
3 00
- Datenbank</w>
wri table</w>
w anna</w>
v ent</w>
unpack ing</w>
tri fft</w>
th eit</w>
repar ieren</w>
photograph er</w>
obsol ete</w>
in complete</w>
hyp hen
gän z
gebr a</w>
g one</w>
elimin ated</w>
ein g</w>
do or</w>
disp os
d ol
cap ture</w>
buil der</w>
bin det</w>
aus richten</w>
Verklein ern</w>
Verfüg barkeit</w>
Ver l
Ton wert
Tabell enz
T RA
Screen shots</w>
Schl uss</w>
S al
Protokol ls</w>
Objec t
Mon ats
Mas ken</w>
Git ter</w>
F E</w>
Develop ment</w>
C ut</w>
Betra chter</w>
Ab b</w>
4. 0.
1 1.
1 1-
wel t
v ekt
um schalten</w>
um mer</w>
top s</w>
third- party</w>
tex te</w>
spezifi zieren</w>
speci fying</w>
spar ameter</w>
span ne</w>
sch aften</w>
re tro
ra tion
r t
pol ynom
php -
ob serv
mol ec
lok ales</w>
li ties</w>
le ag
in e
implemen tieren</w>
höch ste</w>
g as</w>
evi dence</w>
et tes</w>
er seits</w>
ent scheidet</w>
chil dren</w>
chi p</w>
bish erigen</w>
bet rieb
Volltext suche</w>
Syn tax
Stri ch
Sicherungs kopie</w>
Prozess es</w>
Län der</w>
L ein
Kontur en</w>
Kap azität</w>
IN T</w>
ID 3-
Ge ometrie</w>
G L-
Fu sion</w>
Bo dy</w>
Befehl staste</w>
1. x</w>
- d</w>
über legen</w>
wer s</w>
w oll
u -
thres hold</w>
spro tokoll</w>
smo oth</w>
re members</w>
numer ator</w>
movi es</w>
kodi erung</w>
kb ps</w>
k a</w>
is tic</w>
inst anti
i d-
g cc</w>
env elop
ein betten</w>
ei gung</w>
dist ur
design ate</w>
d bar</w>
bin äre</w>
bil l</w>
b righ
anim ierte</w>
Wei teren</w>
Websi te-
So ck
Seiten zahl</w>
Pro g
Plug -
Ordner struktur</w>
N D</w>
L an
In put
Gram mati
Geb äu
G r</w>
Fr amerate</w>
Edi tions</w>
Dien sten</w>
D eine</w>
C ent
Beschrif tungen</w>
B y</w>
Ac cept</w>
AI X</w>
z B</w>
will st</w>
ultim ately</w>
tro tz</w>
to urs</w>
to ur
sh -
s an
pass age</w>
on- screen</w>
ober ste</w>
nö tige</w>
net es</w>
interpre tieren</w>
g ang
er re</w>
endi agram
ele g
ein schränken</w>
ein igung</w>
durch ge
do se</w>
do s</w>
da zugehörige</w>
conveni ent</w>
conn ec
cl one</w>
ck er</w>
belie ve</w>
bel assen</w>
auf einander</w>
as sozi
an bieten</w>
ad vi
a w
Verlauf s
T ypo
T .</w>
Synchroni sieren</w>
Sem inar</w>
PDF -</w>
NE T</w>
Multimedi a-
ME T
M I</w>
Kreu z
Grupp ierung</w>
Fak toren</w>
Etik etten</w>
DI V</w>
C r
Back slash</w>
Ausgabe format</w>
Arbeits mappe</w>
Al ar
AD O</w>
A j
8. 0</w>
zi el</w>
w eichen</w>
visu elle</w>
un expected</w>
th reading</w>
t om
st ops</w>
resol v
regi stry</w>
re positories</w>
ra ise</w>
po li
ple -
pi elen</w>
p it
op ini
niedri g
la gs</w>
is m</w>
imple ment
immedi ate</w>
ho tel</w>
hi stor
glob ally</w>
else where</w>
defini ertes</w>
decl ar
c ip
betro ffenen</w>
bar code</w>
aus geschlossen</w>
XML -</w>
Work sheet</w>
Wer bung</w>
VO N-
V SPRO
V E
Techni ken</w>
Tabellenkalk ulation</w>
Sub netz
Seiten zahlen</w>
Rech nungen</w>
Re ally</w>
RSS- Feeds</w>
O DBC-
Mer ge</w>
Masch inen</w>
JP G
Interpre t</w>
H am
Gel b</w>
Fehl ers</w>
Er inner
CL I</w>
Boo ten</w>
Bar code</w>
B undes
Aut or
Auswahl menü</w>
A G
- Programm</w>
- Funktionen</w>
zeich ens</w>
wei ß
to ok</w>
ta ke
t utorials</w>
s wert</w>
pro hi
pro fil
nä her</w>
m g
l umin
kreu zen</w>
isch erweise</w>
ig h</w>
gl yp
fax es</w>
exter nes</w>
expand ed</w>
evalu ations</w>
evalu ate</w>
erneu ten</w>
en dert</w>
empfo hlen
eigen er</w>
discus sion</w>
an biet
alterna tives</w>
Wir e</w>
Window s
W ol
Tool bars</w>
MA T
M EN
K unde</w>
Her vorh
Ein lesen</w>
D .</w>
Cop yright</w>
Con text</w>
Com ment</w>
Bo ttom</w>
Abon ne
4 4</w>
2 64</w>
192.168. 0.
0, 0</w>
, 000</w>
über gibt</w>
äu ch
ä nisch</w>
y 2</w>
weg gelassen</w>
wea ther</w>
vor eingestellt</w>
verk ehr</w>
up wards</w>
tr u
sub ordinate</w>
sp rich</w>
so und
sch wer
sc enario</w>
reser viert</w>
public ly</w>
pa ge
p s
p ed</w>
neigh bo
me etings</w>
mas ken</w>
kre ment
interpre t</w>
in en
in c</w>
gra dients</w>
gew onnen</w>
gener ierten</w>
gener ation</w>
fähi ge</w>
fla wed</w>
er halte</w>
er baren</w>
ent nehmen</w>
einge henden</w>
dif f</w>
def rag
cro p</w>
ber u
be arbeit
anschließ en</w>
ac compan
abbre chen</w>
Wik i
Verschie bung</w>
Unter kategorien</w>
Stre aming</w>
Si debar</w>
S top</w>
Regi ster
O k
Nutz ers</w>
N et</w>
Light weight</w>
LO G</w>
LA B</w>
Ge ben</w>
Fav orit
Ein binden</w>
Eigentü mer</w>
Eigenschaften inspektor</w>
Druck ern</w>
Do cs</w>
Cas ino</w>
Bild formate</w>
Basi sk
B or
Auth ority</w>
Arch itecture</w>
8 1</w>
- Optionen</w>
öff ne</w>
zu zuweisen</w>
zu ständig</w>
wär ts
wer de</w>
war ding</w>
ver teil
stric t</w>
shar p
sc or
res sion</w>
regul ator</w>
re g</w>
p in
modifi ziert</w>
masch ine</w>
kur z
hr c</w>
gek räf
ge fällt</w>
ge bt</w>
entsprech ender</w>
enc oder</w>
elektron ische</w>
den omin
attemp ts</w>
a perture</w>
W P</w>
Um wandeln</w>
U I
Spek tr
Se ktoren</w>
RA W
Prozedur en</w>
Power Shell</w>
Mittel punkt</w>
Micro systems</w>
Mar ken</w>
Ma x
Konzep t</w>
Jo int</w>
Inten sität</w>
F i</w>
Ex it</w>
En try</w>
Ei gen
Comm and
Back space</w>
Attri b
Assem bly</w>
AUT O
A lig
A JA
A B</w>
3 A</w>
.j ar</w>
zut reff
y- to-
vi erten</w>
v el
undes irable</w>
tra il</w>
termin als</w>
t ari
st ood</w>
propriet ary</w>
priv acy</w>
previ e
optim ise</w>
neut ral</w>
m or
k abel</w>
invi tation</w>
hi ps</w>
h end</w>
fun gs
fa den</w>
f ing</w>
ein ger
ec te
divi de</w>
circum stances</w>
be am</w>
aussa gekräf
an alog
War nungen</w>
Verzö gerung</w>
Urspr ungs
Updat e-
Typ e
T ür
Per l-
Mark ieren</w>
K riterium</w>
JPEG- Format</w>
I so
Hi gh
Fer tig
Fav orites</w>
FA U
F 6</w>
Erfol g</w>
CD ROM</w>
Be stell
Auswirk ung</w>
Analy sis</w>
ActiveX -Steuer
Ab leitung</w>
zusätz licher</w>
un limited</w>
top -
tatsäch liche</w>
sub stance</w>
su its</w>
spezi elles</w>
source forge
set t
sen sors</w>
selek tiert</w>
s ammlung</w>
res h
punk tes</w>
periodi c</w>
natür liche</w>
ma k
lau b
irgend welche</w>
inte gral</w>
ho ok
h ens</w>
ge g
for each</w>
exp ired</w>
erkenn bar</w>
ellip se</w>
e duc
docum ented</w>
deci sion</w>
choo ses</w>
c gi</w>
bit ten</w>
bit maps</w>
ber eichen</w>
beh af
auf rufe</w>
appar ent</w>
alit äten</w>
Zeich ens</w>
Vor sicht</w>
Ver sch
Sen dung</w>
Ro aming</w>
R 2</w>
Pi vo
Objek t-
Minde st
Materi alien</w>
Mar k</w>
Kerber os</w>
K ette</w>
ID 3
HTML- Dokument</w>
H igh</w>
Grund einstellungen</w>
Gre ek</w>
Gleich heits
Ger aden</w>
Certific ate</w>
Benutzer -
Ab senden</w>
25 2</w>
- objekt</w>
über springen</w>
är er</w>
zuverlä ssig</w>
z. B</w>
wikipedi a.org</w>
wei gh
um sch
ti cks</w>
sc ri
sc ans</w>
pres ence</w>
parti cles</w>
ord nungen</w>
möglich keit</w>
links bündig</w>
le aving</w>
l in</w>
l ens</w>
ic o</w>
hi des</w>
ge stattet</w>
fer ner</w>
eth 0</w>
er .
en em
einstell bar</w>
e. php</w>
cryp t</w>
cop y
consul ted</w>
c el
bele gen</w>
b ah
aus ser
auf zunehmen</w>
ash ed</w>
appe ared</w>
any time</w>
an fordern</w>
al teten</w>
Zah lungen</w>
X 11
Vor kommen</w>
Vor geh
Tool kit</w>
Session -
S ach
Re ge
Re cher
RE SS</w>
Popup menü</w>
Mod ell
Mikro fon</w>
MP layer</w>
In k
Herunter fahren</w>
Gri d
Gener ator</w>
Flick r</w>
En tit
Email- Adresse</w>
C LE</w>
C 2</w>
00 1</w>
vollstän digung</w>
sur faces</w>
steigen der</w>
sei tigen</w>
phr ase</w>
pati ent</w>
pa id</w>
met res</w>
m unic
kompati blen</w>
ir q</w>
inv est
il e
har m
h und
foot note</w>
flo ppy</w>
festgeleg te</w>
fac tory</w>
every where</w>
dimension ale</w>
di v
com .</w>
cas e-
c p
brei t</w>
br and</w>
bl ed</w>
bas hrc</w>
ausge hende</w>
at om</w>
art es
ari sch</w>
add- in</w>
V NC</w>
Unter scheidung</w>
T L
Supp or
Suf fix</w>
Su b</w>
Steuer zeichen</w>
St rom</w>
Schwierig keiten</w>
Root- Rechten</w>
La st
Kenn zeichnung</w>
Hexade zimal
FI L
Err or
Deinstal lieren</w>
6 3</w>
2 x</w>
- Editor</w>
überschrei ten</w>
äch er</w>
Über gang</w>
zo omen</w>
www. google.com</w>
well- known</w>
vorge gebene</w>
vergleich bar</w>
str eichen</w>
sec uring</w>
s napshot</w>
ri c</w>
respon d</w>
recip es</w>
ran k</w>
qui valent</w>
pro fit</w>
p in</w>
ord nern</w>
n arrow</w>
modifi er</w>
lei stung</w>
l amp</w>
k lassen</w>
interpol ation</w>
hier archi
gr anted</w>
ger endert</w>
ganz zah
ext 3</w>
cy an</w>
benutz te</w>
b st
aktivi tät</w>
aktivi erung</w>
ac ken</w>
Wur zel</w>
V .</w>
Sch ei
Rec ord
Prot ected</w>
Netzwer ks</w>
Moviecli p</w>
MP3 -Dateien</w>
Kl ass
Inte gr
Histogram m</w>
Gleich ungen</w>
Fest legen</w>
Er stellungs
Entwicklungs umgebung</w>
Deinstal lation</w>
Ch anges</w>
Bildschir me</w>
B row
Alig n</w>
A ME</w>
A 3</w>
8 7</w>
4 3</w>
2 9
10 1</w>
.php .</w>
über trägt</w>
verwei gert</w>
verb or
unger ade</w>
tradi tion
tr au
tik el</w>
tec ode</w>
ta g
t ie</w>
ss l</w>
simpl er</w>
shar p</w>
secon dary</w>
sch ed
s sen</w>
pack ed</w>
mp 3</w>
manufactur ers</w>
los lassen</w>
kreu z</w>
hol der</w>
her um</w>
gen heit</w>
gab ytes</w>
extr action</w>
ev ol
er stelle</w>
ei len</w>
dor thin</w>
com plex
be wahr
b entr
auf nahme</w>
ab gelei
a c</w>
Zeit spanne</w>
Web- Seiten</w>
W M</w>
V C
Sitz ungs
Sen sor</w>
Regist erkarten</w>
R ow</w>
Post scrip
Plat form</w>
Mac -
Lautsprech er</w>
Key frames</w>
J obs</w>
Itali an</w>
Inst ant</w>
H H</w>
Exter nal</w>
Cle ar</w>
C ron
C am
Aus füllen</w>
Ander e</w>
Al ter</w>
99 9</w>
7 55</w>
3. 3</w>
2. x</w>
192.168. 1.1</w>
0000 00</w>
- Icon</w>
verw altungs
verstec ken</w>
um gesetzt</w>
u bun
t alk</w>
system- wide</w>
s se</w>
s lower</w>
pl ans</w>
no tiert</w>
manag ers</w>
magni fy</w>
m ig
lau ten</w>
kommen tieren</w>
ko ordin
kan äle</w>
in ci
gi ving</w>
fo un
eu er</w>
ent ypen</w>
ent ext</w>
defini tionen</w>
de ad
cor relation</w>
bo gen</w>
ber g</w>
automati sches</w>
at oms</w>
adjust ing</w>
ad en
ab schalten</w>
Ziel datei</w>
Wel t
W and</w>
Vol um
Tur ni
Spiel en</w>
Seiten umb
Se e</w>
Pfei len</w>
Original datei</w>
Ori enti
Kan al
IN TER
Daten schutz</w>
CA D-
Bl ur</w>
Abschni tten</w>
Abfra ge
.sw f</w>
verschie den</w>
verb undenen</w>
v Card</w>
ts etzen</w>
top ics</w>
stro kes</w>
stati sch</w>
remo vable</w>
programm s</w>
pic ker</w>
o sed</w>
n de</w>
minim ieren</w>
ma ker</w>
ma gic</w>
lic ences</w>
lau ff
kompon ente</w>
i sol
hol ds</w>
g uter</w>
ff e</w>
explic it</w>
ein ig
distinc tion</w>
dialog ues</w>
capit als</w>
c ash</w>
alterna tiven</w>
a ward</w>
Work book</w>
Wh it
Vorsch lag</w>
Vordergrund farbe</w>
V E</w>
Tre ffer
SW F-Dateien</w>
Par agra
Neu erungen</w>
Kal en
IS T</w>
H aus</w>
Fac tory</w>
F ließ
Er fahr
Dropdown -Liste</w>
Devi ce
Daten satzes</w>
Custom ize</w>
Co unter</w>
Ausdruck s</w>
An teil</w>
An leitungen</w>
Al les</w>
32- Bit-
3 b</w>
Über schreiben</w>
zeich nete</w>
wri ter</w>
win dig
vol ution</w>
verl än
un used</w>
un defined</w>
thous ands</w>
sub stan
ssh d</w>
sp al
sonsti ge</w>
saf ari</w>
ro llen</w>
reg ards</w>
re gel</w>
purch ase</w>
niedri ger</w>
natür lichen</w>
moder nen</w>
m ni
m el</w>
inn erung</w>
in line</w>
in e-
gen e
g amma</w>
frequ enz</w>
foot notes</w>
erzwin gen</w>
err t</w>
distri bute</w>
den ied</w>
conn ects</w>
benach bar
b age</w>
aus schließen</w>
ac com
Z ur</w>
WE P</w>
Variab l
St ück
Sp uren</w>
Sp ur</w>
Sil bentr
Programm es</w>
Pak ets</w>
P las
P hi
Op tion
O UT</w>
N G</w>
L ehr
L Z
Kenn wor
Item s</w>
I G
Ho ch</w>
Hardwar e
H oo
Gül tig
Exchange -
DS L</w>
Bl ack</w>
Automati sche</w>
Auf träge</w>
3 7
. config</w>
än den</w>
weit gehend</w>
tic le
t ate</w>
su per</w>
stell er</w>
s l</w>
retriev al</w>
ra pi
ra h
prak tische</w>
postro ph
mo tive</w>
mat ri
lo an</w>
less on</w>
le gend</w>
l ie</w>
j ene</w>
gu i
ge meldet</w>
f ug
enthalten e</w>
di ts</w>
declar ations</w>
d x</w>
an leitung</w>
amo unts</w>
ali ties</w>
War ning</w>
Tre e
To ur</w>
Them en
Struc tured</w>
St ell
Sch utz
S ort</w>
Rus sian</w>
Pflicht felder</w>
PC X</w>
P ick
Ord nungs
I MP
HO ST</w>
G ames</w>
Fehler code</w>
FO NT</w>
Er ste</w>
Ellip se</w>
Eigenschaf ts
Comp le
Chin esisch</w>
BlackBer ry</w>
8 9</w>
- e</w>
- Schleife</w>
- Knopf</w>
zut rifft</w>
v ektor</w>
spec trum</w>
smar t
sicher er</w>
schaf ts
sch ö
sc r
rar ely</w>
ra che</w>
plat z
p a</w>
optim isation</w>
on om
minim iert</w>
mando s</w>
langsam er</w>
k le
ins urance</w>
in fra
i um</w>
ger ungs
f resh</w>
dra ht
dis kette</w>
de aling</w>
cle ar
ck chen</w>
c loud</w>
bir th</w>
berechti gungen</w>
bedien felds</w>
automati sieren</w>
auf gelöst</w>
at a</w>
ast ron
Sub ject</w>
RD F</w>
Polic ies</w>
PDF s</w>
O ben</w>
L M</w>
J E
IE TF</w>
Filter ung</w>
FO LD
Dri tte</w>
D est
Buil der</w>
Bild format</w>
BOO L</w>
Aus gang</w>
Arch itektur</w>
Ant wort
.c gi</w>
zu greift</w>
xy z</w>
wa hren</w>
verknüpf te</w>
unter strichen</w>
typ ischerweise</w>
typ ische</w>
trahi eren</w>
t r</w>
supple mentary</w>
sta g</w>
speak ing</w>
snipp ets</w>
snipp et</w>
s m</w>
red und
ra st
r us
pro c
p utting</w>
op tische</w>
lower -
la de</w>
kön n
klassi schen</w>
it ance</w>
innov ations</w>
impor tierten</w>
herunter geladenen</w>
gebr äuch
führ enden</w>
full- text</w>
fe el</w>
en gl.</w>
disc los
deli ver</w>
clos es</w>
c u
bo ts</w>
besonder en</w>
bes agt</w>
aus zulesen</w>
Zurück setzen</w>
Z E</w>
XML Spy</w>
X11 R
V cd</w>
Up loads</w>
Um setzung</w>
Stra ße</w>
Sign al
Sc ale</w>
S R
Quer format</w>
Projek tes</w>
Process ing</w>
P ER
OLA P</w>
OG G</w>
Netzwerk verbindungen</w>
N ort
N ames</w>
Mark et</w>
Manip ulation</w>
Lese -</w>
L CD</w>
Kürz el</w>
Internet adresse</w>
IC E</w>
I ch</w>
I O</w>
Fron tend</w>
Farb palette</w>
Div X</w>
Disk etten
Diagram ms</w>
Datenban kt
DE FAU
Buch ungen</w>
Attrib uts</w>
Anwen ders</w>
An d</w>
8 5</w>
12 -
über sicht
z en
vor gehen</w>
vor eingestellten</w>
tu re
ter es</w>
t ac
st ecken</w>
seri ous</w>
ro ugh</w>
ro l
reser vation</w>
rei he</w>
r ats
qu ator</w>
pur su
n r</w>
mail .
l ate</w>
k li
in sufficient</w>
hyphen ation</w>
h s</w>
gr enze</w>
erschnitt stelle</w>
conflic ts</w>
compli ant</w>
clu b</w>
c ing</w>
beein trä
b orders</w>
a ster</w>
Zwischen speicher</w>
X X</w>
Wer be
UR Is</w>
T ak
Swit ch</w>
Start zeit</w>
Sch we
Rout ine</w>
Q t
Mas k</w>
Ma ß</w>
Leist ungs
Internet- Browser</w>
I -Datei</w>
HTML- Tags</w>
H DR</w>
Ger ade</w>
G ID</w>
Ebenen maske</w>
EN TER</w>
E PS-
Deb i
Datei liste</w>
D ay</w>
B B</w>
Au ß
Ar c
. tif</w>
. docx</w>
zu gang</w>
www. w3.org</w>
wes entlichen</w>
we eks</w>
ver sion
ur er</w>
um el
th ick
recal cul
reas on
r a</w>
ph in</w>
p reis</w>
p on
p m
ologi cal</w>
mathemati cs</w>
li erung</w>
k einem</w>
jo int</w>
j ack</w>
h nt</w>
guarante ed</w>
gesch ri
ge ber</w>
garan tiert</w>
far big</w>
ep onymous</w>
en sweise</w>
du al</w>
dou bt</w>
di gi
descrip tive</w>
c c
bibliothe ken</w>
berü hren</w>
b us
alter n
allow ing</w>
ah len</w>
age -
adap tor</w>
T M</w>
Smi lies</w>
Situ ationen</w>
Ruhe zustand</w>
Rubri k</w>
Re st
Play er-
Net work
Net BIOS</w>
Min us</w>
L IB
Jour nal</w>
Herstell ers</w>
Gaus sian</w>
Fotogra f</w>
Farb wert</w>
FOLD ERS</w>
Download -
C he
Bul letin</w>
Bluetoo th-
Authen tic
Angebo t</w>
4 7</w>
3 20</w>
.s v
zu fahren</w>
vor gänge</w>
v ement</w>
unter brechen</w>
unge f
ti ed</w>
tang ent</w>
ta il</w>
star ter</w>
sourc en</w>
refer encing</w>
ra tions
r ein</w>
p fen</w>
neut r
ne ar
minim ale</w>
man ner</w>
licen sing</w>
inst anz</w>
inher itance</w>
in put
hin ein
gel ben</w>
g aps</w>
fo to
ffer ing</w>
f es
experim ent</w>
et es</w>
describ ing</w>
de cor
d anger
cat alog
cam pa
besu chten</w>
ber gen</w>
be antworten</w>
av at
authentic ate</w>
astron om
amm lungen</w>
achie vable</w>
ach t
ab geschnitten</w>
Win RAR</w>
Virtu al
To tal</w>
Tastatur kürzel</w>
T WA
Sp err
S lice</w>
Portu gu
Pas cal</w>
Mo tiv</w>
Mauszei gers</w>
Lo gin
Lin i
Komment aren</w>
In t</w>
IS B
Gen re</w>
F un
Cont ents</w>
C K
Boo ks</w>
Bewertungs details</w>
Beschleun igung</w>
Abweich ung</w>
8 8</w>
6 0
. ex
äh r</w>
zahl reichen</w>
vorgeseh enen</w>
vor sichtig</w>
ust ers</w>
uri ty
up- to-
up-to- date</w>
unk omp
ungef ähr</w>
un encrypted</w>
un able</w>
umel den</w>
um stellen</w>
u dev</w>
tour nam
tin u
tem plat
sho ot</w>
rup al
rout ines</w>
pip e</w>
p ie</w>
mer ged</w>
ma ster
k de</w>
in forma
hand s</w>
hand led</w>
gering er</w>
gem eint</w>
f c</w>
exc ell
ein gibt</w>
ei li
digit ally</w>
destro y</w>
dep reci
comm unity</w>
av en</w>
authentic ated</w>
ar tige</w>
appro ved</w>
app end</w>
an bietet</w>
Zer tifizierungs
XML- Dateien</w>
Vorgeh ensweise</w>
Uni ver
Sch ab
Py ram
Mo tion</w>
MO DE</w>
Listen feld</w>
Kompon enten
Iden tifizierung</w>
H y
Gewi cht</w>
GI S</w>
G ef
Funktion staste</w>
Fig ur</w>
Ent schlüssel
Empf ang</w>
Eing ang</w>
Ein schalten</w>
Druck vorschau</w>
De vices</w>
Betreff zeile</w>
Auswahl feld</w>
AJA X</w>
A ES</w>
5 3</w>
4 ,
wel come</w>
vertrauenswür dig</w>
verlin kt</w>
v pn
un authorised</w>
tel net</w>
te ach
suf fic
sub jects</w>
stron gly</w>
res sed</w>
recei pt</w>
re l</w>
organi siert</w>
or ts</w>
no body</w>
mono chrome</w>
lö sungen</w>
lö sch
kt ro
in ks</w>
hand buch</w>
gesch riebene</w>
ge wi
g loss
forma tierten</w>
f ting</w>
ex emp
entsprech endes</w>
e ure</w>
drop down</w>
deri v
deinstal liert</w>
defin able</w>
crow d</w>
col or
bo x-
beob achten</w>
as er</w>
al ised</w>
Wor ks</w>
Wiz ards</w>
V A</w>
Tr acker</w>
Technolo gien</w>
Serien brie
Recht ecks</w>
Re aktion</w>
Portugu ese</w>
Par t</w>
Pa ar</w>
P lo
Ordner optionen</w>
Lein wand</w>
Itali en
Gleichheits zeichen</w>
Fam ilie</w>
Ent scheidung</w>
E SC</w>
CSS- Datei</w>
CON FI
Bild qualität</w>
AL SA</w>
. pp
- Version</w>
- Parameter</w>
ä nen</w>
ä hi
zugeord neten</w>
zerstör t</w>
yp s</w>
ver bo
tic es</w>
ti ckets</w>
sour ces.
scor es</w>
re action</w>
r ul
potenti ally</w>
polyg ons</w>
h aber</w>
gen der</w>
g old</w>
fa vi
er o
del ines</w>
danger ous</w>
d y
cess ation</w>
c lassic</w>
beh ebt</w>
begrenz te</w>
b g
ange wählt</w>
ali ases</w>
Windows- Explorer</w>
Un do</w>
Trans aktionen</w>
Standard werte</w>
Spezifi kationen</w>
Sequ enzen</w>
S par
S o</w>
Recht schreibung</w>
Navigations bereich</w>
Maß stab</w>
MI T</w>
M ol
Kompatibili täts
Integri tät</w>
IN G
IC C-
Hä ckchen</w>
Host namen</w>
Goog le
Fire wall
Fi x</w>
F ur
Er innerung</w>
Ein tra
Dimen sionen</w>
Diagram men</w>
Daten sicherung</w>
Datein am
D U
Ch ild</w>
CO R
C B
Blu- ray</w>
Bestand teile</w>
5. 2</w>
16- bit</w>
0000 00
0. 0.0</w>
über ein</w>
zwischen gespeichert</w>
zusammen gesetzt</w>
zurück geben</w>
zufäl lige</w>
zu griff
where as</w>
vi er
verursa chen</w>
tri angles</w>
tra de</w>
se eks</w>
sch lüs
s la
r are</w>
programm ieren</w>
pro jection</w>
posi tiven</w>
or te</w>
ony m</w>
on ds</w>
ok e</w>
mati sch</w>
in stitution</w>
in 1</w>
i cht
gram mar</w>
g ünsti
flexi bel</w>
fau l
exist ent</w>
domain .de</w>
dem entsprechend</w>
con tours</w>
con st</w>
comp act</w>
circ ular</w>
ch ips</w>
cap ability</w>
be darf</w>
aut or
aufgeruf enen</w>
attach ments</w>
a th
a i
YY Y
Wir k
War te
T in
Sy base</w>
Suchergeb nissen</w>
Smar t-
Ro tation</w>
Re al</w>
Pip e</w>
PN G-
ORA CLE</w>
O wn</w>
Nach namen</w>
Li mit</w>
L et
L 1</w>
G CC</w>
Füll ung</w>
End punkt</w>
E-Mail- Nachricht</w>
Disk etten</w>
Dimen sion</w>
D ame</w>
Cach e-
Betra chten</w>
BAS IC</w>
B lin
Ausgabe datei</w>
Apf el</w>
2. 3</w>
100 00</w>
.g oog
- Option</w>
übermitt eln</w>
y- Achse</w>
wom it</w>
vor genommenen</w>
veröffent li
th row
sys config</w>
suffic es</w>
sp itze</w>
sk ali
schritt weise</w>
post ed</w>
overla p</w>
net work
nach richten</w>
lab eled</w>
la st
k ill</w>
here by</w>
h atten</w>
g st</w>
entwick elte</w>
ef fort</w>
dis h</w>
cryp to
by- side</w>
bil des</w>
avo ided</w>
X11R 6</w>
X box</w>
UD P-
T alk</w>
T T</w>
Si cht</w>
Schrift größen</w>
S ache</w>
Richt linien
Punk t
Publi sher</w>
O mni
Metho d</w>
Le ben</w>
L O</w>
Italien isch</w>
Hel p
HTML- Format</w>
HTML 5</w>
G P</w>
Funktions weise</w>
Farb feld</w>
E-Mail- Nachrichten</w>
E D</w>
DOC TYPE</w>
DEFAU LT</w>
Bewer tungen</w>
Bele u
Bau man
B ür
Addi tional</w>
40 4</w>
.p l</w>
xor g.</w>
xor g
verzeichnis ses</w>
verein bar
ver b</w>
v in
ula tionen</w>
stat ur</w>
sp iegeln</w>
sp alten</w>
sem in
sch au</w>
rot ating</w>
ri eren</w>
re me
ques tion
portra it</w>
netz werk</w>
moder ne</w>
manip ulieren</w>
m ing</w>
leng ths</w>
ima gin
i zing</w>
gu ten</w>
gesch la
gel angt</w>
ge wiesen</w>
finan cial</w>
exis tierende</w>
exam ines</w>
ent liche</w>
em ph
einzi ges</w>
ear th</w>
dat enträ
c ra
bir th
b lat
aus drück
auftau cht</w>
asyn chron
Z ellen
X P-
Vor -</w>
Vie ws</w>
Tr an
Tas chen
Tab les</w>
TI ME</w>
Steu erungs
Sho ck
Schri tt
Sch ü
Sch ema
S CH
RE AD
R und
Pu b
Pro jec
P hr
Off line-
Mathemati k</w>
MID I-
Kom plex
Her z</w>
G ood</w>
G amma</w>
Exam ple</w>
Engin eering</w>
E-Mail- Konto</w>
Dow n
Daten menge</w>
Co urier</w>
C AT
By te-
Bestim mung</w>
Bedien feld
B atch</w>
Aus blenden</w>
Arra y-
über schrift</w>
zur zeit</w>
y stick</w>
x ls</w>
w ander
ver dä
ur -
up loads</w>
trust worthy</w>
trans mit</w>
techni schen</w>
tar gets</w>
t ch</w>
slo pe</w>
side- by-side</w>
sharp ness</w>
sh ader</w>
schl uss
scann ers</w>
ro utes</w>
rapi dly</w>
produc ers</w>
pri mä
pp pd</w>
optim um</w>
nach richt</w>
mess er</w>
kosten losen</w>
k tiven</w>
ide as</w>
hr ung</w>
gi g</w>
gen re</w>
fr ac
fa il</w>
fa che</w>
eff ekte</w>
duplic ates</w>
direc ted</w>
d ein
compo site</w>
bje kt</w>
au c
attach ment</w>
ar g
an bieter</w>
Vergleich s
VSPRO D1rogram</w>
VON- D1rogram</w>
Termin al-
Te X</w>
T ats
Sched uler</w>
SD L</w>
Portu gi
Ph ase</w>
P ul
P lä
Met adata</w>
Menü befehl</w>
M ann
Lö sungs
Liz enzen</w>
Li on</w>
J uli
Gerä tem
Einfüge marke</w>
Ein druck</w>
Edi t
EMA CS</w>
Daten satz
Co dierung</w>
Ausgab e-
Aus ru
Auf trags
Audio- CD</w>
Active X-
Abst urz</w>
A .
. ppt</w>
Über sichts
ver folgt</w>
ut ch</w>
ungül tige</w>
theore tisch</w>
tex tual</w>
t öne</w>
stre et</w>
sk et
sin e</w>
schar f</w>
repe tition</w>
percent ages</w>
mat urity</w>
mail boxes</w>
in f</w>
he x</w>
gek ürzt</w>
fe ster</w>
excell ent</w>
edi tier
distingui shed</w>
defini erter</w>
d ges</w>
cl ue</w>
besu cht</w>
b b</w>
automati siert</w>
auspro bieren</w>
ange pas
ach se</w>
Zins satz</w>
X L
Work flow</w>
Wahl taste</w>
Vers and
Tor rent</w>
St ates</w>
Silbentr ennung</w>
R ename</w>
P IC
Num mer
Met adat
Ko di
Inter pol
He ad
Graust ufen
Fort schritt
Fl exi
Ex ist
Euro pe</w>
Dis tiller</w>
D emo
CS 2</w>
App le-
Apach e-
8 00
- o</w>
z ones</w>
transpar enten</w>
th umb</w>
tain ing</w>
t- Datei</w>
st ürzt</w>
so ck
s sh</w>
s nap
relations hips</w>
qu it</w>
qu id</w>
opp ing</w>
on going</w>
n .</w>
men sch
manuf actu
manufactu red</w>
kon tinu
incre mental</w>
höch sten</w>
häufig er</w>
entwick lung</w>
eb u
durch aus</w>
cont ent
complex ity</w>
char s</w>
canc elled</w>
c sv</w>
c aller</w>
bo tt
befind lichen</w>
be grenzen</w>
b .</w>
and ro
an o</w>
ab y</w>
ab geleitet</w>
Un installation</w>
Sich ern</w>
Sch rau
S D-
Render ing</w>
Rec t
Q L</w>
Portugi esisch</w>
Netzwerk umgebung</w>
Lev els</w>
L ektion</w>
Display s</w>
Daten schutz
Daten austausch</w>
COUN T</w>
Beri chten</w>
B löcken</w>
Arab ic</w>
Al arm</w>
192.168. 0.1</w>
19 98</w>
vi c
ver läuft</w>
tor rent</w>
tar .</w>
subscri bed</w>
st rom</w>
spec tively</w>
schle cht</w>
richt ungen</w>
retro spectively</w>
referen ziert</w>
process ors</w>
member ship</w>
log ging</w>
lo gin
lauff ähi
kontinu ier
kom bination</w>
k lin
invol ves</w>
indu stry</w>
höchst ens</w>
hä tte</w>
ha ir</w>
ft p
en dem</w>
elem ent
el ing</w>
eg u
bewe gung</w>
berech nung</w>
aus wählt</w>
an forderungen</w>
am ending</w>
al isation</w>
ade qu
ab ri
Ziel e</w>
W eg
Vor her
Verzeichnis struktur</w>
Tim e-
St ör
Rel ation</w>
Rau te</w>
Port al</w>
Popup- Menü</w>
Pl an</w>
PHP 5</w>
PE AR</w>
NA T</w>
LDA P-
L ücken</w>
K ri
In tranet</w>
ID3- Tags</w>
Htt p
Fahr zeug
Entwick ler
Dra w
Dol phin</w>
Dic tionary</w>
CLASS ES</w>
C PS</w>
Behand lung</w>
Back ground</w>
Arra y
A OL</w>
änder e</w>
wie viel</w>
ver t</w>
sph äre</w>
s d
resol ve</w>
reme dy</w>
of t
nummer iert</w>
mitt eln</w>
min or</w>
mark ers</w>
läng ere</w>
län disch</w>
lo ver</w>
kürz er</w>
inter act</w>
identi sche</w>
ho s</w>
gra f
face book
exam ination</w>
e u</w>
di ameter</w>
datas et</w>
cre ate
conf usion</w>
comp e
c f
blin d</w>
bl end</w>
bin ären</w>
bi ert</w>
benutzer freund
beh aves</w>
back -
b ler</w>
aufzu bauen</w>
ar c</w>
anti- aliasing</w>
X PS</w>
Währ ungs
Wiederhol ung</w>
Vol umen</w>
Tr acks</w>
Tabul atoren</w>
T utorials</w>
Start punkt</w>
Sp iegel
Sim ulation</w>
Schlei fen</w>
Photo graphic</w>
P la
Lösch ung</w>
Kontakt daten</w>
Inter esse</w>
IN F</w>
H ex
Fra g
Er satz
Dra ht
Dra g
D ATE</w>
Bi b
Ber ücksichti
Aufzäh lungs
Au di
Aktu elle</w>
AUT O</w>
5. x</w>
20 13</w>
- Leiste</w>
zu einander</w>
wieder gabe</w>
wh it
week ly</w>
unde bene</w>
u. U.</w>
tr ac
st yp</w>
rei ter</w>
präzi se</w>
[...]
